@00000000
14
fd
02
07
ee
10
fb
f5
02
e7
f9
11
0c
eb
fc
f7
f3
01
08
07
18
ff
05
12
21
0b
f6
f1
fc
09
06
02
f3
10
12
ec
e3
f2
02
fe
0a
eb
f0
f6
19
0c
0a
06
e5
0b
06
01
ff
06
09
eb
0a
f0
fd
f8
f4
03
0e
fd
0c
f9
02
0f
f4
ef
fe
00
f5
01
f0
e1
04
04
f7
f7
00
02
13
fb
01
fc
fb
fd
f8
03
fc
01
0e
ec
e1
de
fc
fa
e8
0a
ec
12
e8
f8
fa
f4
f5
0d
0d
f5
08
ef
17
07
ef
f7
04
f6
fe
e8
f4
df
06
09
fc
00
ff
f7
f2
0e
f0
09
00
ed
02
f8
fa
15
fe
ee
fd
0c
ff
0b
f5
fd
e9
ef
f4
ee
f8
ef
ff
fc
02
fb
1f
0b
f3
06
08
f9
0a
12
f7
f9
07
f9
05
05
1a
f1
03
dd
f6
e4
f7
ea
e9
0a
f9
f9
03
fc
f7
07
1c
04
00
fc
1f
08
ef
ec
fa
03
e8
fc
02
05
f7
f7
fc
fd
ea
f1
f2
fc
04
03
fc
08
0b
18
19
0d
09
13
05
00
dd
fc
ea
fc
09
0a
ed
14
ff
e9
18
00
d6
f4
fc
ff
f3
f9
04
f3
1e
14
05
f0
11
01
fd
02
e9
ff
09
ef
ea
f0
fd
f9
ff
f3
04
1e
03
04
eb
fa
fd
19
f6
fe
0a
0f
26
15
09
0c
0f
0e
fd
f7
07
f5
f1
fd
0a
01
f5
ed
f5
f3
0e
fe
06
fc
ec
ff
f5
01
ec
05
1d
17
0e
13
0c
f8
0f
eb
f7
fd
05
12
08
ec
fc
ed
12
fe
f8
fe
23
f6
f9
07
ff
09
e1
d7
fe
08
09
13
12
ff
fd
fc
01
fe
0a
03
ff
ff
0e
25
15
f5
00
fd
02
0f
fb
ea
f5
e6
c1
f0
19
0e
1f
05
08
15
f8
15
01
eb
06
f3
02
f9
17
15
02
27
fc
fb
0b
fe
f9
f0
01
cb
dd
f7
f9
17
ef
f6
04
0a
e8
05
f9
ff
1f
08
07
e8
09
00
01
0b
06
fb
fa
fe
04
fb
e1
d2
de
ee
14
ff
04
09
f9
12
0d
17
f8
02
fa
00
03
fc
f8
0d
13
05
fa
09
06
fa
f5
e6
d5
d8
ec
02
fc
0c
ff
15
f2
1d
fa
14
0d
f7
ff
05
09
0f
0e
13
14
14
1d
04
f5
fd
f2
d4
cf
dc
f1
f4
fa
f7
05
f8
f2
fa
08
f9
fe
0e
f7
0e
0f
fa
00
f6
fa
12
fd
02
0d
f9
c6
e5
e3
f3
0b
00
07
14
0d
fb
fc
01
f3
08
fa
1e
09
05
07
03
01
fb
0b
0c
19
13
24
ea
e6
da
d8
0a
19
03
fb
f7
f7
0a
fe
fc
03
ff
06
06
0c
01
e9
f6
03
09
0a
f5
01
07
f3
0c
fd
ec
06
ed
e4
f5
0f
f9
fc
f4
0c
eb
e4
0b
f9
0e
f7
03
e5
e3
fe
f6
00
f7
03
0b
08
fc
0f
fe
e7
f2
10
ef
ff
02
f9
0c
f5
d5
02
fb
08
09
fc
0a
f1
e6
f7
20
fd
0e
01
fd
0d
ff
fe
fb
0c
fe
f6
e2
f7
fb
03
03
f7
f7
0d
eb
04
0f
ff
fc
fc
f7
eb
03
f9
e3
04
05
f1
00
01
16
00
02
02
08
ec
05
0a
f9
e7
10
0e
07
01
04
03
14
eb
04
ff
e7
f8
fa
04
fb
f7
0d
fd
04
f5
09
0e
13
da
f8
f2
03
01
fe
19
02
01
16
0e
fa
0b
09
09
08
f3
00
0c
fe
ff
eb
00
0d
f7
0d
09
fa
ff
02
e8
ea
f9
fe
0e
fe
07
0b
06
07
fa
22
f5
20
07
03
fc
03
f4
e3
f2
01
03
fc
df
ff
f4
ed
02
ff
ff
02
fa
fd
ec
eb
07
0a
f8
08
fa
fc
05
04
fe
f5
0a
e9
16
f9
10
18
e8
0f
06
04
07
ff
fc
15
ff
09
fa
fc
04
ef
ee
fb
01
0e
fb
f8
ea
ed
fd
10
fe
fd
ed
f1
f2
0e
08
00
05
f7
00
ff
f2
fc
05
f1
fa
f0
fd
04
16
01
f5
f1
03
04
ff
09
09
f4
f0
fa
00
07
12
fe
12
07
08
dc
03
fe
00
ef
03
ff
ed
e3
fb
0b
07
1c
10
02
08
e7
0d
0d
f9
11
06
05
01
08
09
0d
ff
04
f7
f6
fe
fc
06
e3
e2
0e
0e
04
02
fd
15
02
12
06
08
07
ea
0f
f8
fe
f8
07
05
19
15
11
0a
23
15
f0
f4
02
f1
fa
0b
fa
08
06
03
07
14
15
21
07
f3
01
f8
f5
fb
00
02
fd
0a
0f
1f
f3
ee
0a
0c
e7
13
fa
15
ed
1d
1c
09
15
04
05
09
09
0c
fe
03
16
07
10
0b
03
11
0f
12
fc
f8
01
fc
13
03
00
f9
ff
00
02
fd
00
08
0b
0e
08
02
fd
f8
fb
05
00
fc
f9
ef
01
ff
f4
0f
00
08
e0
0c
09
0d
f8
0a
02
f7
0d
08
0e
05
0e
fa
01
f7
fb
06
02
f9
fd
02
11
1f
03
fb
07
f4
ff
1b
00
24
05
e7
06
f9
eb
eb
03
ff
0f
fb
13
06
f8
e7
fd
f3
0a
0a
06
f0
fc
ed
05
fb
0d
04
f1
f4
0f
fd
0d
11
f0
16
fa
0f
0c
fa
fe
fa
13
00
f0
04
f6
fe
06
04
e6
f8
f2
12
fe
fa
03
eb
0e
09
0f
0c
05
fb
fa
f7
f6
fd
04
f5
f0
e5
fa
fd
e9
e4
0a
fa
df
f9
04
0b
f1
fe
06
1f
14
fd
02
fd
fd
01
00
1c
13
19
eb
f8
ff
f2
f4
04
f2
0d
12
fd
05
fa
0c
07
fa
f8
f2
e3
00
0b
12
0b
05
02
f0
07
02
17
19
09
e0
0a
06
05
05
06
f1
06
0c
f9
fa
12
08
11
11
00
12
08
21
07
06
1d
fc
09
1e
ff
ff
0f
12
07
09
0c
0f
0e
01
ee
f8
03
f4
ff
f4
07
f7
01
10
04
f9
f3
19
f4
16
0a
fa
0a
15
fe
fa
fc
f7
09
15
fd
2a
01
fe
fb
06
fa
1b
17
0c
f4
f1
e9
f5
e7
ee
f7
fb
fe
ec
09
16
f2
f2
13
06
f9
09
17
1a
1b
02
07
f5
05
e6
f5
15
01
f5
d1
e4
de
ea
de
ee
ea
09
0e
f8
ec
fd
0d
fb
ff
18
09
03
01
04
ff
1b
00
03
03
f9
e6
eb
f4
e5
ee
ec
f3
f0
fc
e2
22
f3
00
fa
f8
11
ea
f0
09
19
f7
00
10
de
00
0b
f8
f7
00
e6
02
fc
fe
f8
ee
fe
f8
ed
fb
f8
ff
0b
f3
1b
06
05
e9
0e
f4
fe
01
e9
fe
01
ed
07
e7
f2
06
e7
1b
f9
09
05
1a
01
0b
00
fe
02
ff
08
f7
07
ff
de
f9
f6
e2
0c
fa
f7
f8
f4
f1
f2
fd
00
1d
ff
1c
09
f9
12
0b
0a
02
06
f2
f8
05
fb
08
ff
ff
fe
0a
f0
fd
0b
0d
fe
0e
04
06
15
17
15
08
10
0f
12
02
0c
e3
02
eb
03
ef
1d
0a
fe
e4
0a
0a
f7
fa
07
f7
0a
04
11
19
16
04
1d
1b
05
13
10
16
09
eb
f9
07
08
f3
fe
03
00
ee
06
e0
ff
03
03
02
03
0d
07
18
10
11
19
06
fd
fe
18
fb
1d
00
0a
e6
13
0c
0a
ed
16
01
ff
f4
f4
f4
ef
f2
07
fb
00
f8
1b
f9
f6
06
fa
0d
08
0c
f9
00
02
0e
e3
0b
e9
15
18
19
0f
12
12
01
fa
e8
17
02
04
ff
01
f3
ef
f7
14
0e
1b
19
f7
19
fc
02
fa
f3
01
08
f9
f8
fa
0a
fd
0f
f3
f3
f5
f5
15
f4
e5
09
0d
04
09
08
0a
f8
0f
f8
0b
fe
e8
f2
05
f7
fd
fc
01
ec
fe
08
f8
04
fd
07
f2
04
f9
11
0f
0d
00
0a
0a
ed
fe
fe
10
fe
09
fa
00
04
f4
f9
06
eb
fc
07
07
f8
ee
11
f8
08
09
f9
05
e9
f2
e8
fb
fa
0b
03
fd
1a
fe
03
0b
ec
f1
08
e5
0a
fb
e4
03
07
fe
f4
0a
ff
ee
f7
0f
04
04
ee
07
1d
0c
02
04
01
03
fe
05
f9
f8
f9
08
ff
02
17
16
17
13
ef
f5
04
06
04
09
fd
03
e4
02
ff
03
02
ff
ed
01
08
0f
1c
fb
f9
fc
fa
04
0c
f4
f3
00
f1
f4
10
f7
05
fd
04
ef
ea
f6
f0
ed
f5
08
06
16
00
fc
00
f3
1e
14
f3
08
13
ef
0b
05
0f
0a
fc
0b
03
00
01
fb
0a
ef
fe
08
f5
0b
14
fa
f1
ea
f8
0c
01
03
01
fe
f2
03
f6
10
f9
00
16
03
05
15
19
0c
16
0e
02
17
05
01
1d
09
fd
08
0e
08
05
ea
f5
02
02
01
fd
07
06
19
05
08
0b
06
02
13
fd
03
f9
06
08
fe
18
04
f6
20
f9
21
01
f6
e8
f3
e9
01
0c
04
03
f8
ef
04
0a
0b
fb
05
fe
15
fe
ff
12
fd
05
04
0a
f7
06
0a
0c
0d
05
f3
00
fb
0d
01
f4
07
01
fe
f8
f1
03
ff
03
0e
18
0d
f9
0e
fc
09
0c
0a
fe
fc
0b
ff
f8
02
fa
f7
e8
02
f4
11
fd
f6
0a
02
0c
08
0b
f6
f3
f6
13
08
0e
fb
00
07
0b
00
0e
09
f6
f8
05
f9
09
08
06
fa
fc
09
08
f5
f7
01
01
0c
fd
04
f5
e7
fc
f7
ed
0a
05
ec
f5
09
1a
f5
03
f8
14
ff
fd
fe
01
f4
16
f6
fb
f1
00
f8
08
f1
01
f0
fc
ea
f1
fa
fb
f6
f9
fe
03
00
01
ff
ff
01
02
02
ef
f0
f1
eb
0e
05
ff
1c
11
08
06
03
03
01
0d
e7
fc
07
fe
0c
16
02
f2
fc
fa
f7
f2
02
ef
13
03
0b
fb
ff
ff
04
0c
11
03
02
0c
fb
fc
f1
d5
e6
ec
09
12
f6
f1
0e
00
06
f5
11
f5
05
fd
0b
0b
01
01
1d
02
f9
18
0c
0a
02
06
f4
ee
ee
ec
fa
0e
fe
0c
00
0a
0e
01
ff
ee
11
fa
f4
fb
f8
19
fb
f9
07
fb
f8
fa
f2
fd
fc
f4
ea
f6
f8
ff
f5
f5
01
08
fa
e4
01
f4
d0
e5
f9
07
0c
1a
fd
fa
12
f6
f5
fa
fd
fe
f1
12
05
e9
16
0d
07
f2
eb
0e
09
13
e7
e6
cf
bd
c8
ee
0d
19
1a
f8
00
f6
07
12
17
07
02
08
07
05
f6
f0
ff
0e
ed
04
1b
f5
03
d8
e3
c1
85
85
8f
a8
ef
e1
ec
fa
fb
01
06
fa
07
f1
02
fc
ed
f8
10
14
08
05
25
16
ff
fa
00
fa
e7
c3
9a
97
bf
d4
f6
0b
15
fd
0b
fd
06
09
f4
0f
fa
08
08
0c
02
01
f9
19
fb
09
0d
05
07
18
fe
fb
e7
f7
f3
f8
ef
0c
f5
ff
0b
f5
08
f3
f8
ea
fc
0b
f1
1e
07
0a
0a
01
fa
0b
19
10
1b
16
fb
09
ed
fd
04
fa
07
02
fa
05
09
f9
0b
03
15
e9
01
f6
15
26
29
0c
17
17
f9
fe
f6
0f
ff
0c
01
fb
ed
fc
f7
02
f9
f4
fe
f0
16
fd
fa
06
f3
f9
0d
1c
f8
f5
09
f9
0d
13
01
07
fd
0e
f0
f2
fc
e8
ef
08
07
e9
f3
f3
fc
04
08
02
f2
09
03
08
06
03
f8
02
ef
04
14
f0
f9
0a
03
09
0a
f5
fb
07
07
f9
ea
08
fe
ee
f7
fa
02
fa
03
0f
13
12
0e
09
13
09
0e
fd
14
01
fe
08
05
fd
f7
ff
0b
f8
f5
f2
0a
18
13
f3
05
0b
fc
11
ff
04
18
0a
11
1f
00
09
0f
04
ff
fd
00
f9
f1
ec
02
ff
01
fd
0e
f5
ec
0e
f9
fb
0d
06
07
f7
07
f1
f2
f9
0c
04
f2
03
00
e8
0e
fe
e1
18
f4
f0
fd
f4
f9
03
0c
00
fa
13
00
fa
f5
fd
0d
fb
f5
05
08
03
08
09
ee
f4
18
f4
ef
ff
fb
ff
1a
04
13
0b
e5
fe
0b
fa
01
f7
fd
f3
09
f2
ee
f6
ff
12
ec
01
f8
0f
05
e9
00
f7
02
11
03
0b
fd
f2
fd
01
06
f9
1a
f9
e6
fd
07
ff
01
09
ef
00
0a
01
fe
f6
08
17
12
12
08
06
0d
f9
f5
13
08
f7
12
0b
07
f3
05
fc
08
fe
09
10
01
1d
07
00
11
0b
ec
fb
00
02
0d
fb
02
fe
ee
05
ff
e6
f0
01
fb
06
01
00
0b
04
f8
0e
15
17
27
1c
28
23
0b
0b
15
14
03
0b
15
01
1b
fa
e3
f8
18
07
0a
1a
ed
0a
f7
0f
18
12
f5
14
0c
0b
0a
03
0a
0c
f4
0e
05
fa
00
fb
f5
f4
0d
0f
f8
ee
ed
01
1e
04
10
06
02
34
f8
03
fa
f9
f9
fb
e6
17
ed
10
f7
e7
f0
e4
f6
ee
f4
05
00
ff
04
f1
1a
0e
1a
0f
04
f7
01
0a
0d
0c
ed
01
fc
1b
f6
02
f7
ea
ec
f4
f8
f9
01
ec
eb
05
09
06
0f
1a
0e
f2
03
0f
03
f5
0f
06
02
f6
f8
fb
ff
fb
fb
fe
e2
f0
ef
14
04
0c
f5
03
fe
0a
02
fd
f1
f3
e9
ef
01
e8
10
14
1e
ff
17
e5
d6
f2
e2
f4
ea
e9
e0
ff
fa
04
f7
00
0a
05
f0
fa
db
f9
df
e9
e8
f2
f3
02
05
02
ea
08
f9
f4
e4
09
f3
de
f5
08
f8
ef
ff
ed
f6
e9
eb
db
f5
ef
e9
e4
f2
f6
f0
f9
f9
05
19
0f
f2
fe
f1
fc
ee
ed
f4
f5
02
0b
0d
06
f8
e6
e7
f4
ff
ee
f4
01
fa
fc
ea
fe
07
e4
f8
04
11
09
0a
fa
fa
e2
e2
fa
04
fb
f9
f5
fd
03
09
fa
ec
f8
ee
ea
fa
f4
12
e1
f7
01
f8
ef
f9
fa
ff
03
01
e6
ee
ef
fd
09
08
0c
0a
f6
f7
04
f1
fc
01
08
f8
0b
ed
fe
fd
de
04
eb
e9
04
ff
15
27
12
f3
04
ef
ee
fe
03
11
fc
10
0e
02
00
fd
13
1d
e9
ed
f1
f8
ea
f5
0f
08
fb
27
12
07
0b
ee
f7
0d
0e
00
1a
f9
0e
f9
19
10
04
03
07
f3
fd
fa
f0
fc
f1
03
16
0d
15
0a
ef
07
0d
0f
f4
06
1c
f9
f6
f0
fd
0b
fa
fb
f2
00
0e
eb
f2
fd
f1
f7
e9
02
f4
0d
15
0f
10
0c
08
0b
01
fe
0e
0b
03
fc
02
11
f0
fc
04
f5
12
fa
ea
f8
e2
d0
f7
f0
0a
02
00
0e
25
12
11
f9
0d
07
e9
0b
f6
00
09
00
ff
f3
f7
f5
f4
08
fe
ee
ff
17
11
17
18
fb
02
fd
0a
07
0b
ff
05
01
fa
f7
fc
08
04
01
ea
f8
07
0e
fb
17
1b
20
27
17
1e
10
1d
1a
13
1d
fe
10
0a
fc
0d
12
10
fb
0a
04
0f
0f
18
0c
03
10
22
0e
27
1e
1c
1d
12
0e
0c
10
0b
0d
06
fa
fa
0d
01
fb
0b
f4
ec
19
2a
2b
0a
14
02
01
17
12
0d
17
fd
09
06
ef
04
ff
f1
f6
e4
f9
fb
07
03
fd
fd
f4
00
04
fe
12
10
05
ec
16
fe
f8
f8
f3
fa
06
0e
fa
fb
f5
e6
fe
ed
e6
0e
f8
ec
08
fa
f4
ee
fe
fe
1c
05
00
22
0a
f9
19
03
fd
02
ff
f8
07
f8
ea
f7
f1
06
0c
02
f6
06
f2
0e
10
e8
01
0c
00
11
03
fb
11
00
15
fc
00
f9
f4
0a
1b
f0
05
f7
08
08
e5
0b
fc
ff
fd
f8
0d
0a
06
f9
0f
03
f6
09
09
0a
10
01
05
f6
fc
fd
02
0d
fd
05
f2
fb
e9
04
03
10
05
14
e4
0f
04
0b
00
f4
f4
1a
f8
0c
06
0c
02
10
02
01
03
0d
fe
f0
f0
f5
f5
16
f1
09
00
0a
06
f2
f0
06
08
15
e0
09
ec
04
f5
fb
f3
01
0c
13
fe
fa
05
03
f3
fd
ff
06
f6
06
fa
f1
0b
fb
0a
fe
ea
fc
df
10
10
10
e7
12
fe
09
06
eb
fe
f3
f8
ed
1c
10
0a
18
ee
e1
05
0e
00
06
fa
04
15
fb
07
05
ef
0d
19
00
0c
ff
09
0b
f7
03
05
03
f8
12
fe
03
05
09
fd
0b
02
fc
f1
fe
18
ff
f9
f6
fb
fc
ea
ee
01
f7
07
18
f2
f3
0f
0c
fc
fb
00
fc
0d
02
f7
0b
fc
0d
ec
10
14
ff
f9
05
fb
04
02
f9
f3
04
ef
11
f8
f2
0f
04
f1
fe
01
05
04
12
09
f8
0a
0e
10
00
0d
d5
ef
08
fb
0a
ff
0d
f8
03
04
15
0c
fc
04
04
eb
fc
02
00
f6
f4
1d
19
fb
00
f8
ec
01
01
04
fc
0b
fb
f4
04
01
fb
f2
f6
04
00
06
0d
f8
fc
0f
f0
08
13
04
f1
e8
12
f9
00
1d
0c
f3
f2
0e
06
09
fb
fd
03
05
e8
01
07
f7
08
05
f3
03
05
08
fa
ff
fe
06
fc
eb
0b
eb
fc
06
fe
e5
0a
25
06
08
ff
f5
02
06
16
01
fd
14
fc
fd
01
0b
fc
f7
18
01
f8
0a
ee
f7
f3
08
fd
f8
07
fd
03
07
12
08
02
03
03
0e
03
08
16
16
02
f9
e9
ff
23
0a
f5
f9
17
fd
f3
f3
e7
16
fa
08
ff
f8
00
02
f2
f2
fd
07
17
02
04
24
10
12
f0
09
e8
07
f9
e6
06
01
10
02
f8
0d
04
03
1e
f7
f4
04
0a
03
0d
ff
ff
fe
ff
f6
fb
f7
06
f3
00
01
f9
05
f2
24
ef
ff
f8
08
0a
ff
0d
0e
f8
02
e3
f1
19
1d
07
fb
0d
04
02
ff
e5
05
16
f7
ea
0a
fb
0b
19
fc
ff
f1
fb
f2
0d
f8
0e
0e
0b
03
0c
13
05
ef
08
06
06
14
01
17
f9
1f
e8
fb
fe
14
e3
f9
10
0e
f9
00
12
02
02
05
f5
15
1b
06
0b
08
01
06
0a
f6
04
f1
f4
fb
f6
13
05
f4
f5
f2
02
04
10
fe
fd
03
01
ff
fd
0f
03
07
03
f6
f8
f2
f2
02
fd
fe
fc
14
0a
1f
05
02
01
20
12
07
07
09
fb
04
0c
0e
f0
f5
ff
02
07
fe
e9
17
fc
fe
ee
09
06
e2
0b
00
07
01
00
f4
12
0e
06
01
f9
fe
02
0a
06
f0
0e
f3
0a
10
19
05
01
1b
07
0b
09
06
11
fb
12
02
fd
0d
fc
07
fe
f6
12
0f
0c
f5
0a
0c
19
08
03
f7
08
fb
f3
0c
0e
0a
01
11
0d
fe
ef
05
08
0d
f9
f6
13
f7
f4
0f
f9
fc
11
09
fc
fc
13
0d
fd
ff
13
ea
05
00
fe
05
ea
f2
01
ff
10
0a
02
05
08
0b
ff
f9
20
05
15
f2
01
22
f0
0a
08
04
fa
f8
fd
fc
f5
f8
0c
0b
17
15
e8
fd
ff
f3
03
0f
03
02
0b
f1
f8
11
07
fe
17
07
f1
07
fb
0b
0f
13
08
e5
10
02
e7
f0
01
f8
10
0a
f7
07
07
02
09
fd
f6
00
f2
ea
14
01
0d
f4
f9
f0
f8
ff
f1
fc
12
e5
02
fa
01
f8
ff
f2
0d
08
0a
10
f9
f6
ff
02
f5
fe
0e
f9
11
01
f2
00
f5
ff
13
09
0f
ff
08
fc
12
fc
16
15
0d
f7
1a
f2
03
1f
04
fd
fc
f7
0c
fe
fb
0b
10
08
f2
f9
ed
08
0f
f5
04
eb
fb
17
13
e7
01
e9
07
05
02
fa
06
f4
fe
00
ff
02
0b
ea
08
fa
ec
f1
05
ff
04
05
02
08
02
04
03
ea
fe
fa
0d
13
ee
1e
fe
fd
1f
fb
0c
08
ec
07
f0
ed
06
fb
fd
f3
0d
1f
f5
1b
f6
08
ec
fe
e6
fa
06
06
15
02
19
f7
0c
13
f6
f2
0c
0b
05
00
e7
15
06
ff
06
f8
e4
ff
fa
09
e1
ea
ed
04
09
0c
fb
e3
fa
f0
09
05
fb
e0
06
f6
f5
ff
0b
f1
fb
02
16
ff
f9
f4
ec
f4
ec
12
f8
01
de
0e
fd
d8
ea
ef
f7
0b
14
f3
fe
05
0d
0f
0a
ff
fb
14
ff
f1
fc
04
fe
f7
ff
f2
fc
f8
f7
ed
e6
f8
f6
f0
fe
17
fa
0d
ed
02
03
10
fa
0a
0c
05
05
e8
0a
11
0c
f3
fc
02
0a
08
0e
fe
11
fe
ff
10
06
f0
fe
05
07
e8
18
00
f2
06
fd
f2
02
f4
04
f2
f3
15
0c
13
fe
f8
22
0f
fc
fb
f8
f4
f6
f1
05
ec
ff
fb
0e
f9
04
00
02
01
fa
08
f6
fd
fc
00
ef
02
fb
fd
05
00
fa
0c
11
f0
14
10
f0
0d
0a
10
f1
06
f5
01
fb
02
f6
f7
f9
02
fe
0f
09
04
0a
0a
03
fb
f5
10
18
f6
0e
f3
02
f3
fc
04
fe
04
fd
fe
f0
ff
01
f7
e9
fb
07
0b
ff
1b
01
ff
03
0a
0e
07
fe
09
f9
02
06
fd
02
f3
fc
f8
19
f6
0a
d6
dc
0d
02
f4
0d
f5
00
16
fe
fd
fa
f0
fb
05
0d
0e
dd
0c
fb
f8
ee
f4
04
13
09
01
f4
fd
fe
11
fc
f1
ed
15
da
f2
0d
fb
07
1d
0c
10
0a
06
fe
f8
f1
09
ff
04
f2
f8
04
f0
fe
0a
f7
fa
e7
f8
00
f7
fb
f2
fc
fb
fd
f9
13
08
f7
f6
0e
0b
04
f5
fa
0d
13
f4
fa
f0
fb
e0
07
06
f5
0c
f4
06
0b
0f
ff
f6
0b
01
0f
05
02
05
f9
fb
06
f3
f1
fb
0e
00
09
09
09
0c
10
02
fc
eb
0b
f3
01
0d
fe
19
06
1d
06
05
08
fd
fd
02
0b
09
0b
f7
09
0b
f0
fa
f6
00
05
fa
df
01
f5
0f
f1
0a
f6
13
01
fc
ed
fe
f9
f9
e3
f8
f7
0a
03
e7
fe
04
ee
fc
04
fb
19
f7
ed
f4
f7
0e
fb
17
0b
1f
fc
05
1f
fb
06
01
0e
00
05
ef
11
03
fb
0a
fe
ff
01
0b
ff
0e
ff
03
02
f6
f3
15
f0
09
08
0b
ea
12
02
05
e4
02
f9
0e
e9
f6
fc
f7
fd
ff
16
05
01
f6
ee
e7
03
0f
18
07
06
19
f6
fa
06
f5
f9
0c
1a
fa
1f
04
e7
f4
f3
01
fc
0d
04
0b
ed
fb
06
ee
01
0c
f0
0e
fd
1a
17
14
f1
f4
0a
0a
05
11
ff
0c
0b
0b
11
f7
07
e7
f2
07
de
0e
f5
e9
07
06
02
01
02
ed
06
11
10
f9
0f
05
07
fc
0c
f5
fa
08
fb
f7
f1
f3
12
09
09
03
0a
f6
f8
0c
de
f5
07
07
f7
12
11
09
05
09
06
ff
07
fa
07
06
fc
02
f3
ff
06
fa
11
14
e6
fb
ec
f3
f2
07
03
f1
09
15
1f
14
03
0d
fe
03
23
0e
02
07
fc
fe
fd
1b
16
f8
f1
1c
ef
fa
0c
ea
e4
03
0f
f8
05
01
fa
13
12
f0
01
fd
17
fa
f9
08
fb
00
fe
f9
f2
fb
11
fd
08
09
fb
e7
f6
0f
f2
09
13
0d
02
f7
0a
06
07
16
fc
13
fc
f5
ed
0b
10
0b
e7
09
f7
13
14
08
f5
f6
08
fb
03
f7
f4
09
0d
ff
12
f2
04
01
fa
f3
04
02
e3
fc
01
fa
f5
e8
fd
f9
fb
fa
ed
0b
07
08
ea
fc
0a
fd
08
e8
13
0f
f8
fb
0d
0e
f4
0b
06
04
ec
04
f3
01
02
03
0c
ef
06
fc
fd
08
02
0e
0c
fe
ef
10
f9
f7
03
11
eb
1a
e7
f9
f9
f5
0b
01
0f
02
05
0a
18
05
f9
e7
06
ff
11
fb
f5
ed
15
1a
18
15
fe
fe
07
0d
05
f6
ee
14
10
ff
0d
0b
fb
08
09
00
0e
fa
12
14
e2
f2
02
12
0f
f7
fe
09
18
06
ee
de
03
fb
fa
ff
16
fc
02
f9
fe
19
06
f9
e9
05
03
0d
07
f6
e5
fc
f9
00
f2
fd
f1
04
ec
fe
0d
f9
ed
f6
f4
f4
fd
f3
02
17
06
fe
f2
0b
f5
10
f3
0e
0b
0f
fd
0d
05
f7
22
03
fe
03
09
08
06
fa
0e
f8
00
ff
0e
06
f7
0b
0d
f5
0e
05
01
0c
f7
fc
01
ee
e7
f9
06
09
ff
17
f0
0b
ff
ec
fe
f6
02
f3
f9
12
0f
0d
16
0e
f4
08
11
05
00
fd
f6
f0
09
f2
e4
f3
f8
f0
f5
0d
fa
00
e0
00
fc
02
f4
06
11
09
03
0a
fe
02
05
06
05
13
0d
08
13
06
fe
06
ff
05
04
ed
0d
15
f6
f4
ef
fc
10
00
04
ff
08
f3
f9
0d
05
f4
06
03
04
0d
06
05
fb
f8
f4
fa
f0
fe
18
07
09
f4
f3
0e
f0
eb
fd
eb
11
0c
0e
03
15
24
1c
1b
0c
ee
10
f8
1e
00
11
01
f4
01
ea
17
ff
0b
ec
08
0e
01
f0
ea
00
ec
00
f4
03
f9
13
ff
1d
20
22
13
02
0c
14
12
11
19
fa
ff
ec
02
02
05
01
f1
f9
ed
ed
fb
0b
fe
13
16
00
15
0c
1e
26
10
1d
0d
0b
20
f3
0a
00
03
00
01
12
19
ff
fc
ee
ef
fb
f1
08
fd
f1
ff
02
f7
1b
19
16
17
06
0c
00
fa
f4
00
0a
06
fc
f1
0f
fc
f1
ee
e6
e3
06
06
fe
00
f5
02
df
f5
d6
db
d2
d3
eb
e7
f3
e0
f7
f6
e5
03
04
fa
05
f2
01
0b
ee
f9
09
fc
04
f3
e6
ff
f2
d5
d0
ca
d2
de
ef
e1
00
03
fb
05
00
17
04
fa
12
f6
f5
07
f0
1d
fd
fe
f9
03
fd
f5
e9
db
03
f3
06
0b
0d
08
13
0c
fa
e9
fa
05
1c
fa
d8
f8
fc
f3
0b
f4
f3
f9
f8
f7
ee
f4
f6
fe
14
f7
17
04
fc
0c
fe
07
ef
10
f1
08
f5
00
fc
05
0c
12
fe
05
f7
f2
08
02
f8
11
06
00
08
11
09
fb
fb
03
02
fc
f2
05
fd
09
00
09
09
fb
fc
f5
f6
09
04
f9
00
f2
fd
04
fc
1a
14
f1
ed
06
fd
fc
ff
f2
f7
fc
05
ff
08
22
0e
02
0f
f5
0f
f5
08
f1
06
f7
f5
f0
03
00
fa
0d
f9
01
06
09
04
ed
ed
f8
e8
f9
e5
0b
04
fb
07
09
06
07
ee
fd
ff
ef
0f
04
fd
f2
07
fe
0e
0b
ff
f3
f3
07
0e
09
f7
f7
00
f8
05
f9
0f
01
fd
10
10
f8
fe
f4
ec
04
10
05
fa
02
fd
fa
f6
e8
fc
fa
12
ff
08
05
04
00
11
06
f9
f8
12
20
f0
fc
04
05
ee
07
f9
f9
0b
ff
f6
0f
14
fb
f0
fb
14
0a
00
0d
f8
00
f4
eb
f1
ff
06
0b
11
00
fc
1a
f4
f5
f0
00
04
03
f8
fe
f9
04
f6
03
0e
1c
fd
fc
16
00
f4
fc
25
04
ef
08
03
04
05
10
f7
fc
ff
05
f2
fc
0c
0d
fa
f8
0f
ff
13
10
0e
fd
f4
f1
0f
23
e9
f9
10
09
0f
0c
10
05
0e
07
08
06
05
ef
fd
07
fd
01
fb
05
16
f9
01
02
ff
0d
f8
f2
0c
09
04
01
fc
07
f0
03
f5
12
00
ef
0d
fa
fd
f7
fe
fd
0f
fd
0a
19
fa
fc
fe
f6
fe
fe
17
08
f8
f5
f4
f1
06
fd
0a
fc
02
f1
fc
eb
05
00
06
05
12
ed
13
02
fb
02
02
06
fb
df
02
0e
0c
0c
ef
ea
fc
f6
ef
05
08
02
06
08
f6
14
10
0d
fc
fe
00
fc
0a
03
01
07
00
e7
0c
11
f6
f2
04
fe
ee
fc
05
f0
0a
02
f7
0d
06
fb
05
09
03
e9
f3
ef
0b
fe
09
10
0c
eb
11
04
f8
fe
fd
fe
f9
06
f8
ff
0a
02
07
fc
0b
e8
08
03
f0
fd
01
03
1a
0a
05
01
fc
ff
e5
1e
00
fe
fd
01
09
f5
f9
04
df
13
10
f1
0a
13
e8
ee
fc
0d
f5
fd
f2
0f
21
f9
f1
04
fd
06
09
0e
ff
04
fa
ee
02
02
08
f1
0a
1c
04
0d
f8
ed
d9
ee
0c
13
08
e8
fa
10
08
f6
09
fb
00
1e
f9
f7
e6
f0
fe
0b
f6
00
0c
04
f5
08
04
03
ec
e8
ea
17
06
0b
01
f8
f7
04
1b
15
10
12
0e
00
05
00
fb
e6
00
e3
05
f5
fb
fc
02
ff
03
ff
f5
02
08
fd
16
f2
f9
fb
09
0d
f5
fa
0d
fc
14
07
05
f9
e8
f7
e8
dd
fc
e9
00
e8
eb
0e
08
0d
10
f6
08
05
ff
fd
10
f8
fe
eb
f8
15
f5
04
f7
07
e1
fc
f1
00
fe
00
f8
f9
f1
02
fb
eb
f1
0e
fb
ea
f0
f4
f0
1a
10
00
f8
0c
16
0d
11
1e
1c
fc
f2
0b
10
fc
f4
fe
0a
e4
05
fb
e3
09
11
f8
f8
f0
0d
ea
f8
0c
0b
1a
17
0f
07
0f
04
02
ec
09
0a
f3
08
f7
e1
02
05
e7
0e
01
0c
1c
1a
f7
00
06
f7
f6
23
17
f8
1a
0c
17
0b
01
0b
dc
01
08
05
0a
19
0c
02
eb
fb
f7
05
f3
00
f8
f5
f1
03
04
20
15
14
0f
1b
07
1d
10
fb
04
0f
f9
e7
05
fa
ea
0d
fb
08
ff
0d
f2
e3
0e
09
fc
05
13
03
17
fd
07
0b
0d
01
06
0b
02
01
0b
07
00
11
f2
02
ff
fb
fe
05
f9
04
f3
f5
ef
ef
ff
f1
e6
05
06
0a
02
19
11
f9
11
13
05
fa
03
e7
11
02
05
f4
f7
fa
01
07
f1
f9
fd
ea
01
01
15
19
0b
ee
07
f6
f6
ec
ef
ef
14
f5
fc
16
ff
ec
ef
f9
1a
0c
e6
09
fe
f5
fb
f4
ff
fb
07
f9
ed
e8
da
dd
cf
e1
f6
f8
e7
f9
ec
dd
f9
fc
da
02
fd
f5
08
fa
06
07
00
db
dc
f6
cb
e6
dc
e8
cd
f4
f4
dd
e7
ef
02
f5
f6
e5
ff
05
f3
f7
1a
fa
0f
fb
ff
0e
02
e9
02
d2
e0
ed
ce
f6
08
ef
e9
f2
f8
f6
02
06
0b
f4
f1
05
0a
0c
16
fc
08
f1
0e
08
16
ef
ec
df
dc
df
df
fb
0d
f5
fb
ff
16
0c
09
fc
01
1d
0d
09
f8
20
0f
14
ff
1c
00
11
fd
f1
ee
fc
ff
e2
0d
02
09
ff
0a
12
fd
16
0d
ff
fe
04
00
f5
fa
01
06
0b
09
0b
f8
06
00
fa
e6
07
0a
f6
1a
ff
05
04
0c
02
ed
0d
07
f0
f1
05
ef
13
04
36
fe
07
f6
06
f6
fd
07
e9
fb
f2
f2
10
fb
05
16
13
0e
0c
fd
fc
eb
08
ec
f1
ec
01
20
05
16
0e
08
03
05
f0
f5
f2
0f
e6
06
07
02
03
1a
20
f9
f3
fb
f4
e1
ef
ee
05
fa
f4
0a
08
0b
fd
fb
16
fe
e7
00
fe
f8
06
0c
f3
06
17
f9
0e
13
16
f0
02
f6
ee
ec
ea
02
f5
ff
00
f1
09
04
05
fa
fc
12
f0
fa
e3
fc
f5
05
fc
ff
0f
12
0d
fe
f7
f6
ed
df
f4
0a
13
f2
00
0d
fc
fc
0e
e9
0c
07
00
fe
f6
07
ff
f2
ff
03
fd
f2
0b
eb
f2
fb
f2
fc
04
f6
fc
ee
ec
f2
07
ef
fa
05
d9
fe
07
04
0c
00
0c
00
ff
00
f2
f5
ff
0d
07
ee
e5
07
0f
ea
f3
02
ea
fe
f5
ec
09
11
e5
f7
f4
05
01
03
f3
da
ea
ea
f9
f3
07
04
f8
f0
f8
fc
02
09
ea
f1
f5
02
06
05
0c
f5
e7
f9
02
11
01
f0
05
05
fb
e6
f8
0b
07
fb
16
04
fc
e7
06
01
eb
0d
ff
11
01
f8
00
06
f6
e9
f3
01
1a
ff
12
0a
f9
03
08
f4
20
01
02
13
fe
ff
07
01
d9
04
0b
0d
05
f7
00
eb
dd
e9
18
f7
f0
fb
fa
02
f3
f8
f1
fb
f0
07
11
00
0b
fd
f2
05
02
f4
0d
f0
fc
00
f9
0b
04
02
fc
02
fd
fc
0a
ee
f7
09
f7
0d
06
ff
f7
ee
e9
00
ea
ee
fb
f5
05
07
07
e7
0b
fe
ed
00
ee
19
f4
ff
f6
fa
08
0b
f7
e6
eb
05
0a
05
0c
19
f0
02
08
f9
07
e6
03
02
24
0b
fc
08
e2
f5
19
02
10
1f
e7
ff
0f
e3
02
f1
02
0e
07
10
17
0f
fc
01
fa
fa
fd
f2
08
ff
12
07
0d
05
f9
06
01
fb
08
0e
0e
1a
17
ff
0c
12
ea
ee
06
fc
ff
e3
06
fc
fc
0a
10
00
f8
04
fe
0e
03
01
06
f6
f9
f2
01
04
ec
0c
fb
01
01
03
00
0a
ef
e9
f0
ff
15
06
01
03
fd
17
1a
f0
eb
f5
fe
06
f5
fd
04
ea
fc
f4
03
fd
09
f0
ec
f5
fb
00
f8
18
f4
fc
07
07
06
0b
11
fd
f4
11
06
01
03
00
fe
0f
01
07
08
f7
14
03
f8
10
f1
ed
ed
02
05
fb
09
08
f9
e8
03
01
05
f8
fd
01
fb
0e
00
01
fd
f8
ed
0c
f7
fa
11
f7
0b
ee
f1
f1
01
f7
0d
fe
f6
12
f9
0e
ee
07
06
fd
02
f2
07
07
1b
03
07
0c
fe
11
f1
04
02
f4
e0
ff
f5
f4
ff
ff
f0
14
0a
05
fb
14
00
13
0e
14
07
f1
e7
0b
0b
05
0e
fd
f9
16
04
fc
f0
f2
f0
f7
ee
f3
04
00
11
fe
0d
0b
24
0c
0a
f8
ee
d6
e1
e9
02
00
fb
f9
f2
f4
ed
ea
fa
0f
fe
f3
f6
eb
fa
fe
ff
e7
fd
f0
ed
e6
e0
b5
b7
d3
e4
07
fd
f6
10
06
f9
02
f0
f6
f7
ff
f4
15
fb
ee
09
ef
f7
e3
db
db
c5
b1
ad
ca
e9
07
02
02
05
f8
13
fa
0c
f3
f7
03
f4
11
05
03
fb
21
09
e9
eb
d6
cf
bc
c8
cd
fb
fd
0e
06
f6
0c
05
fe
02
e6
fc
02
f4
f0
22
05
fb
01
f3
ec
00
ed
f5
e4
e3
e6
f7
11
00
fa
11
fc
0b
fe
f3
14
fe
0c
fd
fd
13
fb
fe
fd
f7
09
fa
0f
f5
03
e1
e7
09
05
03
fd
ff
10
f4
05
01
0e
05
eb
01
06
0d
11
07
03
15
f9
19
09
e1
ed
1b
05
f7
06
09
0b
fb
04
f8
fd
02
fc
0c
fc
02
fb
0b
10
ff
08
0b
f1
15
f2
0a
f4
f2
01
ef
0b
05
fc
f2
fa
fd
fb
03
01
09
0c
f9
07
04
fc
0b
15
d9
ee
03
05
fc
0c
06
02
1e
f0
ff
32
23
06
05
06
f6
02
fc
fa
04
06
0c
fc
f7
17
05
05
fe
11
08
fb
08
1b
02
1c
03
ff
00
fc
20
11
00
00
f9
05
fb
06
f9
0a
0d
01
14
04
fc
ff
01
02
02
07
00
08
05
fb
1e
09
04
f1
2a
f7
18
0b
fd
09
fe
06
04
fe
fc
0c
04
06
08
06
15
fe
fa
10
12
00
0d
01
ff
18
e8
04
03
fd
0b
fd
04
fd
f5
fb
fd
00
03
09
03
f5
fe
10
fd
f9
0e
06
0b
fe
e8
1b
09
05
10
f5
23
22
f3
fa
f4
0c
03
03
fc
fb
11
f8
0c
10
02
12
13
08
f7
fc
f8
fb
f6
19
01
05
0d
f8
0f
1e
0b
0a
fe
0c
ef
10
f6
05
fe
01
fe
02
07
05
01
0b
f2
0a
00
05
01
06
f1
02
0e
1c
03
02
00
14
11
ee
fc
fc
f4
00
07
f6
f2
ef
06
f2
f8
f3
0d
06
f6
fb
e7
02
f8
11
09
ff
04
06
ff
07
0e
1a
03
07
04
fb
fd
14
f9
f9
f7
f3
fa
04
e5
07
13
03
f4
fe
01
fe
f9
00
10
ef
10
12
0b
f0
0d
ff
07
0b
f7
0b
fb
16
e8
fe
01
f8
04
02
0b
02
09
00
0b
0c
1c
01
08
04
ff
f8
0d
fe
ff
ef
eb
0c
16
02
f6
0f
fe
fc
f8
03
f2
e6
0e
f7
1e
ee
f3
0a
fc
f3
fe
f9
15
08
f6
f8
ef
f2
fa
04
fb
18
fe
10
ee
03
02
fc
0a
fe
fb
fe
06
07
fa
00
fd
fd
0e
f4
0a
ec
e1
02
f7
fa
11
18
f5
f4
ec
08
07
16
f1
f0
08
f9
fd
17
05
02
fe
fb
04
f0
fd
f4
02
eb
f8
ea
ec
00
f9
ed
09
f5
01
f6
f0
01
05
03
0d
fa
fe
ea
f9
1a
f8
fb
03
1d
fb
f8
09
ef
01
f6
06
f1
ea
de
ef
f0
e9
f6
ee
fe
07
f1
ea
f8
fc
19
01
fe
fb
f7
0c
05
10
e8
06
f3
e9
f6
d4
f1
e2
e9
e1
dd
e1
01
d2
f4
05
05
fa
03
f1
22
f8
fd
07
06
f8
01
f9
f0
ff
f9
0e
e3
f2
f4
05
fb
f1
10
f1
e6
d7
f5
f2
ff
f4
fe
05
04
fc
ec
e0
f8
f6
fb
0d
fe
f6
04
f9
f5
ee
09
0d
fa
13
ff
f7
07
fc
fd
f8
f5
02
04
fb
ff
02
08
f3
03
fb
ea
06
f6
0c
09
ee
f9
02
f9
06
04
fb
01
f4
01
03
03
fc
f9
e3
ee
03
f4
00
f2
08
e1
ff
04
0d
06
08
05
16
0f
f4
fa
e4
04
0f
05
eb
0d
f9
f1
ff
fa
01
1c
e9
e3
f6
f9
18
f7
0b
00
06
02
fe
f6
f8
f9
05
fd
13
fd
0b
0b
0e
00
fb
fd
0e
eb
f8
f0
fa
f3
fc
f1
12
03
03
13
f7
e2
ff
07
09
fb
0f
12
09
09
ea
0b
f6
15
10
09
05
fe
fc
db
e0
f3
d2
f8
02
ff
10
00
08
fe
18
0d
02
0f
14
19
02
fa
dc
2c
0f
13
0b
0e
1d
07
f9
ed
e3
d9
f4
ec
09
04
f5
10
01
f3
1c
1a
09
15
08
05
01
f9
e6
2f
0e
13
2a
02
01
02
0d
e3
ec
fc
07
07
f3
03
ff
f7
fd
0b
0b
12
0a
02
0c
02
06
e3
f7
19
18
0d
ff
0e
12
12
08
f1
f9
fd
eb
e2
06
fe
1b
fa
17
1b
fc
0a
fd
03
f8
04
09
e1
ea
07
1a
16
11
18
26
07
15
fb
fe
d6
e6
18
13
02
04
fb
07
06
15
03
09
ff
05
05
f7
f0
f9
16
0f
18
28
0e
12
12
f8
ee
00
f6
13
0a
01
fe
14
10
f1
08
0a
f2
1a
f3
fe
f8
f1
f2
f0
11
11
1a
12
04
fc
0d
f2
ed
ef
fb
fe
f8
f3
03
15
f7
0d
02
f3
07
10
00
fe
f7
fa
00
02
24
14
fe
19
f4
f1
f0
ed
f4
f2
fd
0b
f8
0a
03
fd
f1
eb
08
f6
f9
fc
fd
ff
08
f4
06
08
00
f1
f2
f5
09
f8
f0
ea
c8
fa
10
f3
08
08
ff
12
ed
e4
d6
f3
d9
ed
eb
dd
ef
fd
04
07
f1
f5
df
d6
fd
f0
ee
c9
e9
ff
ef
e6
0f
03
08
02
f5
f2
e4
d0
e8
cd
c6
eb
e2
f4
d9
ea
ea
07
df
e4
f5
d4
c8
df
df
fe
f7
f4
02
00
0b
f0
06
f9
ce
e6
d2
00
0e
f9
df
e0
e1
f3
d3
03
e7
f0
f1
ff
fc
f3
df
ef
f7
f9
05
05
05
f6
0f
e3
d6
e7
04
09
f1
02
f6
01
ff
f5
f6
00
fe
f7
e1
e7
f4
e0
01
04
0a
10
02
0d
12
f6
00
03
ec
f5
0c
fd
ec
fe
f6
fc
f6
f3
ee
fb
01
f0
08
f4
09
fc
fb
f0
13
e8
f8
05
01
fa
fe
ee
f5
17
fa
09
e9
f6
ee
ec
05
db
ff
e4
08
f9
0f
03
0b
eb
fe
08
ef
01
1b
17
fa
f2
fe
fc
05
04
14
df
e8
fe
f4
ef
f6
f3
f7
fb
f7
e9
19
07
07
10
f7
03
ee
f2
fe
00
06
15
0e
0c
02
f8
04
1b
1d
1a
f8
f2
04
06
03
fa
f4
01
fc
fc
19
f3
15
09
fd
f4
f5
e8
f7
f9
ff
02
10
f8
08
fe
02
e9
09
ef
19
f0
00
03
0b
08
f2
0a
03
01
1d
ff
f9
07
f5
0e
0c
1a
06
0a
fc
0a
09
01
eb
18
03
f6
19
fa
fb
05
ed
fa
fc
13
0a
f1
09
08
02
01
fe
e5
05
13
f2
0e
f5
f4
0b
f4
09
17
13
f7
07
0a
ff
17
08
08
fd
03
ef
0b
fb
ff
02
fc
04
ff
fc
08
07
06
fb
01
fc
02
01
09
02
fb
13
01
15
14
f7
0b
ff
01
f3
f3
15
0e
03
f6
f6
01
fd
10
07
1a
ed
f2
fb
fc
19
f7
0e
17
22
12
fb
06
12
fd
f4
07
01
09
fc
03
00
01
ff
f8
03
f3
f5
f5
05
ef
09
fd
01
12
0b
10
0a
12
07
09
ea
fb
15
0b
09
f5
ec
e5
ff
07
0d
fe
f6
0f
f2
13
06
fe
1c
0d
1e
17
1a
0c
03
00
0b
f8
fe
00
ff
fd
f4
01
f1
0b
dd
14
f7
0c
fb
02
0a
f9
12
02
0a
15
1c
17
12
02
f3
fe
1a
00
17
03
fe
06
f4
ee
e5
ec
07
fb
ee
f3
07
fe
03
03
e9
fc
12
ee
f8
fc
e0
f6
e9
fe
17
02
fb
f2
eb
05
0e
f9
e2
f7
d8
02
04
03
05
01
07
fb
f1
00
ff
f9
13
05
f8
f7
f0
f4
fb
09
f8
f3
04
f5
02
fa
f6
e4
e8
ee
04
14
f0
f3
fb
0f
04
05
f2
00
0b
fd
07
f9
ef
ff
f9
f2
f2
ff
fe
06
00
05
e0
e5
ef
f4
06
f5
ee
fd
f5
fd
04
02
05
12
12
12
15
f3
e5
eb
f7
0f
f8
e1
fb
f9
08
11
f8
e7
f6
03
14
ff
11
fb
13
09
13
0b
f5
f6
0e
f9
f2
0a
f4
fa
e6
01
fb
18
0f
04
ff
12
f5
f5
e1
fa
00
01
ec
18
15
1c
0a
10
0c
06
0b
fc
03
07
d9
15
fe
f5
17
04
0d
27
13
12
20
0a
02
12
08
04
01
e6
f3
0b
08
fa
fc
10
fd
0f
1a
00
1d
17
0f
1d
f0
10
28
16
39
17
12
27
1c
f8
fd
02
1e
fb
03
03
ed
09
fe
11
0b
d7
16
18
0f
28
ff
0f
16
01
14
0a
e9
20
f9
12
0b
06
14
0c
0b
0a
04
ff
0b
f8
f8
fb
f4
0b
0a
08
17
08
06
06
06
01
06
e8
e7
02
f4
21
0f
fc
ff
06
17
f0
01
f6
01
ec
fe
ea
08
09
13
03
0c
07
ed
06
e9
ee
fa
f4
ff
ff
10
18
fb
00
ff
fe
03
05
13
ff
fd
e9
e3
f9
13
00
00
12
11
02
f8
04
e0
f2
df
ef
02
09
0f
12
0b
03
f6
fa
05
0a
17
0e
fc
00
eb
00
0e
03
01
07
fb
fe
f3
ff
f8
04
fe
e4
f9
0d
0c
0e
fa
18
f1
16
fa
f3
05
f5
f1
08
0b
f0
05
1a
04
fa
f7
e3
f4
f3
06
f0
fd
05
06
19
0e
14
05
03
fc
fb
03
07
12
fd
02
03
13
01
04
18
12
0a
fd
17
ff
09
09
05
05
02
0d
0a
19
ea
06
fc
0d
08
08
08
03
0d
11
0b
f1
1d
12
04
fa
fe
08
f7
f8
05
15
0a
05
14
1c
04
01
f8
06
10
1a
f6
07
09
fb
05
fa
00
04
05
fd
00
f9
f3
09
f1
01
00
f4
18
f2
ff
00
1d
06
04
00
08
10
02
01
f5
09
f0
02
02
01
03
f5
f5
08
1c
0b
fa
0b
ff
fe
fd
12
ed
0f
f8
ea
ed
f3
f7
fb
0f
ff
0d
fb
fe
fc
0b
f5
03
f7
f5
f4
f3
eb
fb
04
eb
02
0e
01
05
f6
14
fb
f4
0e
f9
09
e8
ec
fb
17
f1
0b
0a
f2
fa
f3
f9
f5
f6
01
05
f6
0d
14
04
1c
07
03
f0
ed
f4
10
f2
1b
f3
ff
ff
00
08
f5
0e
00
1a
00
fd
fc
08
11
08
02
10
13
02
e0
0a
01
f7
15
00
05
06
05
ff
0c
f5
f5
03
f8
0a
03
f9
fa
0a
14
05
10
e8
03
fd
f7
06
17
1a
fc
00
fa
08
17
fb
fa
ff
08
f0
0d
fd
f8
f2
04
f1
0f
ff
06
f1
06
0b
eb
08
03
ff
16
e4
00
0a
f1
e9
0b
08
fd
19
f9
f6
01
0a
07
e7
ec
f0
0a
e3
f2
0d
eb
fe
04
11
fb
10
f5
07
05
06
ff
03
fd
ef
eb
ea
fa
12
f8
0a
ee
f7
08
fd
13
f3
ff
ef
06
f4
02
0a
fb
fa
08
05
03
f8
09
ea
0d
01
f5
f5
1a
04
fe
09
0b
ed
04
fd
ea
ea
eb
f3
f4
ef
fe
e1
14
ee
0c
fc
0a
fe
02
02
0b
04
fa
e1
02
f7
f7
f5
00
ec
24
f1
ec
fa
e4
f1
ec
f3
f2
0c
f8
14
07
21
16
20
07
f2
09
f5
fc
0c
ec
02
0a
0c
00
fb
06
f9
e7
f9
f4
f4
f7
f1
02
ea
f5
fd
0f
fe
17
fc
04
10
16
f0
f9
fe
05
1b
fe
f4
14
16
fe
f2
f6
e9
f0
e9
de
df
00
f4
f0
e6
fa
f8
fa
fe
15
15
07
f9
fd
ef
f1
00
ff
f8
13
f0
0e
0b
f8
fc
f3
d5
dc
da
e5
ec
e5
d8
dc
dd
f7
fa
15
20
0c
02
11
fa
fb
0c
fc
18
15
fe
14
fb
00
f5
ee
d2
cc
cd
d0
e8
ef
db
ce
ed
fa
e2
11
05
05
f2
f0
08
eb
10
08
05
fc
01
f9
0f
01
15
0f
fe
f5
e4
d2
e9
d0
f8
e6
ff
f5
00
ff
f5
04
f1
f2
05
00
0e
f2
05
20
16
1d
12
04
0e
0a
16
f6
fd
1a
ea
f1
05
f0
03
17
ff
e6
05
ef
f7
ff
14
fd
00
11
0b
fc
0a
07
04
0b
14
20
1d
10
f1
fd
ff
e9
f1
06
f7
e7
f1
fc
f2
ee
ff
17
e4
f9
0b
09
02
fb
00
fd
10
1b
09
21
12
07
16
02
fe
06
f1
ee
fc
ed
f7
16
13
ee
eb
fb
fc
f9
f6
fb
02
11
0f
17
03
08
0f
19
0c
f9
ed
0d
06
fb
06
f6
dc
ff
16
19
0b
13
0a
01
05
ff
09
f1
f3
15
0a
06
0d
26
04
15
20
04
e8
f2
07
11
ea
f5
0c
1d
ff
11
0b
f4
f5
f8
03
0a
fc
fb
ed
f6
1b
0b
08
0e
fa
00
1d
01
0e
01
1a
fb
08
1b
09
00
15
fd
11
08
f0
11
05
f8
fe
06
e9
0c
f2
0a
f8
0a
07
f9
0f
12
f9
07
16
fc
01
0f
08
f5
11
1a
11
f6
fc
06
f8
f0
f6
fb
fe
ff
01
02
12
0a
f5
00
e5
10
18
f8
09
fc
08
f8
0b
0c
0e
01
10
e2
f1
ed
05
05
0c
ec
0f
e5
02
ef
e5
07
f7
09
22
22
12
fc
ff
0d
05
f7
f2
12
ee
07
d5
fb
08
fa
00
0b
de
f8
fb
ef
f1
e9
0e
fc
0a
0f
04
f2
fc
0f
08
04
00
ed
e5
ef
f9
ec
f4
e7
04
00
1d
08
04
01
de
ee
fc
ea
fc
15
08
05
0d
f8
1c
f6
02
fd
ea
0a
ff
f7
09
eb
0b
f8
16
e4
06
0b
fe
05
e9
ee
e9
02
07
11
00
0b
1e
fa
1c
06
f6
1d
1a
f0
fa
ff
07
f4
08
ef
fa
df
01
05
00
f8
f6
fc
ed
ee
06
03
fd
0a
fd
0f
0e
06
0c
0d
10
fd
df
fb
fc
ef
03
fa
e9
10
09
0f
f4
10
f8
15
02
eb
f7
f4
09
00
fa
f8
09
fc
ef
ea
f5
16
04
01
fa
f6
f7
fd
e6
00
09
03
08
fb
00
ec
02
fb
e5
f8
01
2b
d9
07
f2
f8
f7
07
ff
07
ef
f8
f1
f3
f9
fa
fc
02
03
fe
00
fd
06
03
0e
ea
e7
dc
f3
04
f2
f1
ff
09
ee
08
fb
e9
06
04
fe
08
fe
f4
0a
09
ff
10
fa
f7
ff
e1
f2
f0
ef
f8
ee
e2
f3
f0
e9
f8
f2
fe
f3
e2
ee
ff
14
eb
ea
0a
03
fa
01
08
fe
ff
16
fb
14
10
00
f0
e0
fc
04
f2
0b
0e
06
07
f0
0d
fb
f8
f3
ec
02
f2
02
0e
14
ff
06
f8
f8
02
ea
f7
fc
eb
1b
21
00
f7
ed
ec
0b
fc
07
f4
0b
0b
07
09
f3
ff
f4
f7
f6
f0
ff
fa
0f
13
0b
f7
05
e8
10
07
ea
ee
fe
05
f3
0d
ff
1e
06
1a
f5
13
fc
fc
f6
ed
06
16
03
eb
04
ff
ed
28
fe
09
ff
03
0b
02
05
ea
0c
fc
f9
ee
ff
f5
0e
0f
fb
06
f0
fd
ee
02
fe
1a
f2
01
02
f7
f6
03
ee
0c
0b
fd
07
0a
fa
01
0a
09
05
0d
11
13
09
ed
0c
fd
fd
04
04
fd
17
ed
01
ef
05
f0
fc
e5
10
f4
08
08
fe
04
f3
16
16
02
f7
08
04
08
e8
fe
01
f9
ef
f9
00
ff
0b
fb
00
07
05
08
14
14
0d
0e
16
04
24
2b
06
fa
f3
0e
fc
eb
fe
04
00
01
00
f6
11
fc
ec
0a
03
fc
05
13
01
04
0c
26
12
f6
14
f5
f6
ff
17
10
f8
16
0b
17
02
fc
f4
e4
fc
01
05
fd
fb
01
17
fe
07
02
07
16
17
0d
f6
07
12
11
09
1a
02
02
f3
11
0f
ee
f3
f6
e9
f2
12
09
d9
fc
f4
08
f3
1b
0e
fe
13
ed
02
04
f2
08
12
e5
fc
07
f7
02
02
08
05
f1
fe
f9
f6
09
ef
fa
03
fa
fe
18
05
04
0b
f7
fc
fd
eb
f2
00
ef
ed
06
0b
09
09
f5
fb
fe
e4
ea
f7
eb
08
e2
f5
e1
f4
e0
09
f4
02
e9
04
fa
f8
f3
f5
ff
0f
16
e4
10
e8
02
02
e5
f6
e4
eb
06
0b
eb
ef
e4
f8
04
2f
0c
06
07
e7
e4
f0
f2
fb
01
06
f2
0b
f3
f9
0e
08
04
ed
f0
f4
f4
f5
ee
f8
f5
14
22
17
0b
f4
ed
f3
03
ff
0c
f7
13
01
f1
06
19
13
02
ec
06
02
08
0e
14
09
f1
03
06
24
3b
33
18
ee
00
0b
0c
0a
f8
00
0a
19
fd
10
06
e4
f5
fd
f1
12
f4
fc
17
f8
06
ec
0e
31
3a
15
f2
08
01
06
f2
fc
04
19
0a
ed
f7
0b
16
d9
1c
03
f5
f3
0d
04
e4
03
0b
ff
3a
32
39
11
f6
10
03
f9
e6
f9
0a
f2
f9
fc
1b
fc
01
06
01
f9
17
05
0c
00
ff
fa
13
0f
2c
31
1e
fa
00
0f
fc
08
03
fa
e1
0d
f7
09
15
f7
02
0b
dd
f8
00
f6
fb
ea
16
06
fe
10
29
1b
04
f5
ff
0b
07
ef
04
05
0a
03
13
0f
fe
ea
f8
07
10
0a
08
00
0d
0e
13
15
1d
1a
1f
1f
03
ec
fb
f7
ff
fb
06
14
05
f7
fb
fa
fd
02
04
04
e7
05
14
00
00
14
02
0b
15
0e
fe
f0
0b
12
00
fc
0c
05
0d
00
ff
1d
04
f4
fa
e7
10
0c
f3
f9
19
09
11
17
13
0c
1a
06
f0
02
0a
f6
15
0d
ff
01
0b
13
1a
0e
0f
fb
fa
05
0c
18
fd
fb
fe
f8
03
19
01
19
ec
04
ff
04
f9
fe
fe
03
e8
f1
0b
03
13
05
1f
fb
f5
02
0c
f7
d9
ff
f8
f7
f8
0c
fb
fe
0e
ed
07
01
fe
03
fa
0b
07
1b
ce
fb
07
11
02
e8
09
09
14
0c
fb
f9
f2
00
f4
ef
ef
fd
f7
07
0c
ff
13
fd
e9
ff
f2
f1
1b
08
0e
fb
0c
18
ed
ee
f0
f2
eb
10
ef
07
f5
ec
fb
fc
f5
ec
02
fc
09
fc
fe
07
f8
f9
fb
fc
f9
0b
18
fc
06
11
f3
09
01
d9
f7
19
00
f7
ee
fc
eb
fb
05
da
f6
f3
f8
03
f6
f7
fd
fd
fe
fe
0c
00
04
15
14
01
03
fa
f1
fa
f5
03
03
fe
fd
f9
05
03
fb
0e
06
05
fb
01
13
1a
f8
07
0a
f5
0f
ff
08
f7
fd
fa
04
f4
e4
e7
fe
01
03
0a
0f
03
24
fb
15
00
07
ef
06
03
01
0c
f7
f6
11
f5
f8
f4
0e
0c
17
15
f2
f9
1c
05
08
fe
01
f0
03
01
03
05
12
fc
01
10
f4
ed
01
fc
ff
fe
ff
e8
ff
0c
fc
11
0b
f8
05
13
ef
12
e2
18
ff
0f
08
04
e0
14
f7
0b
e2
f7
08
0f
01
fe
07
0a
01
13
17
03
fc
f4
ff
fd
03
ea
0d
f8
0c
e3
ff
ea
08
fc
0a
ff
f8
17
f8
0d
1f
06
fe
01
fa
00
f4
06
04
09
0f
f4
f8
0e
04
f1
db
f5
eb
f7
e8
ff
0f
ff
f2
f7
11
f8
19
e5
18
e6
06
03
e0
f4
e7
0a
01
03
05
f8
e7
f4
ef
e5
f3
10
12
fc
fd
00
fc
0b
f5
0b
01
f9
fe
fa
14
00
fb
03
f0
13
07
f1
03
ff
05
0b
eb
00
02
08
f0
fa
f3
f3
e3
14
02
03
ff
f0
f4
0e
01
eb
0a
08
f9
e5
f5
ef
07
05
15
f6
02
fb
f7
f0
07
07
ef
09
fa
11
fc
01
e7
f5
fd
0f
00
01
07
13
f0
11
f7
0d
f7
14
19
f1
e8
06
f3
0a
05
fc
0c
00
fc
07
f1
02
f8
fd
10
fd
13
f6
f7
06
07
e1
12
00
f3
08
0c
f2
fc
05
ff
01
05
fd
01
fc
f6
03
09
f7
00
0b
0c
fa
0a
f3
f6
18
fd
1a
ec
fd
f8
11
ff
f5
e2
ec
07
16
06
00
f7
04
ee
08
f3
fb
fd
ff
10
f7
fb
10
ec
f7
f0
f5
ee
fc
fe
02
01
e3
f2
ed
14
1d
04
fa
05
e8
fd
f6
f6
ef
14
ff
ff
fd
01
eb
fe
13
0a
f6
ef
f5
0c
08
eb
e2
02
0a
01
13
17
06
02
09
04
ec
11
03
ff
f7
f2
fb
08
0c
eb
04
03
f4
f0
f9
01
fa
da
10
00
f7
17
0a
f4
0b
09
ff
02
f0
fd
01
fe
ff
f1
05
e5
f7
fc
03
f8
e9
0a
f9
fe
09
ed
fa
fd
15
03
05
fc
f3
02
01
e5
04
f6
fe
fd
01
fa
11
05
01
07
04
f7
f1
0b
0e
00
0c
0a
02
fa
03
fd
10
03
fd
05
0a
10
ec
00
f3
f8
ea
06
14
0e
0a
02
06
f5
fc
00
fb
12
fe
f6
f2
0f
f5
ef
fc
0d
05
e0
f9
1d
06
fa
0d
e3
1a
10
06
ff
09
00
f8
05
f4
0a
e9
0f
05
1d
00
08
01
1f
f6
f8
08
00
ef
01
fa
f3
03
ee
ff
fc
f9
ef
f7
f2
fa
ef
f9
f2
f3
00
00
00
08
09
fb
fb
fd
f0
f2
01
f6
11
ed
00
01
ed
05
f9
fa
07
06
06
02
06
fe
ec
ef
e4
f2
14
1e
0a
f1
02
e6
f2
e7
f9
e6
0c
fe
fb
eb
0c
1b
04
1f
04
11
0e
f9
0a
ed
ef
e8
08
02
06
fb
e5
e5
f6
e8
ef
fc
f8
02
e0
fc
02
09
f5
ec
0a
05
f7
0a
fb
0e
ed
ef
02
02
08
f0
16
fa
01
f6
e4
fb
e9
f8
e9
ea
08
ec
0b
01
05
f4
fd
00
ff
09
fc
f9
05
0a
06
f5
f5
f5
f0
1a
04
eb
e5
f2
ea
02
eb
f9
fc
ec
04
fc
04
e4
0d
fb
fa
f1
02
ef
0c
17
03
04
ff
01
f0
f9
f3
f7
e8
ec
f3
d7
dd
1c
e8
00
f2
ef
07
06
04
01
f7
0b
0a
0f
0d
09
fb
f8
02
03
16
0d
10
0b
ec
e4
ef
fc
f0
03
0b
f9
06
0c
06
0e
f6
fb
0e
ff
f9
05
12
f3
14
f2
f3
fe
03
f5
f6
f7
0e
e2
e4
da
e8
14
01
ec
00
04
0e
06
ea
fb
f4
f9
0f
01
f9
08
03
f3
0f
ea
02
f6
0e
f3
fd
f2
fd
17
fb
09
fc
f5
21
0b
11
e0
14
ff
fa
05
f2
11
01
09
da
12
f7
fe
f1
00
eb
f4
05
ef
05
fe
04
14
e0
fc
06
fb
f5
f3
f0
05
09
0a
02
f1
fb
f1
f7
0d
fe
0d
f6
fe
10
11
f1
04
fc
13
0f
04
02
fd
fc
f8
f4
f1
03
09
11
01
10
1c
fd
06
06
17
fe
f6
fc
03
fa
05
03
11
ee
00
fd
fe
02
00
f9
10
f1
f5
0f
f8
04
0a
14
06
f6
fd
04
f7
1b
01
f2
04
f3
ed
08
f9
fb
fc
ff
f8
05
f2
04
f7
f9
f3
f9
f8
0c
fb
08
07
04
04
0c
05
ff
f5
02
0d
03
f6
f2
f4
f5
10
07
f4
02
ed
f8
07
ff
0a
fa
0e
ef
ef
f4
0b
0a
05
ee
fd
fe
0b
04
fa
04
ff
f2
fe
e8
fd
f6
f8
fd
f8
f7
05
f8
01
e7
d8
04
03
09
f9
08
ff
f8
06
0c
f5
0c
05
03
fa
f3
ff
ea
0a
fd
04
03
f6
f7
ff
05
02
02
0a
fa
08
ec
03
f7
04
0c
11
18
f9
17
f9
04
15
08
f5
e4
0f
02
0b
f9
14
0a
fe
08
fd
07
06
16
1d
0f
05
0a
f5
fb
07
03
03
00
05
05
fa
ff
fc
01
1d
ff
fe
17
fc
f3
ef
04
02
ed
d3
10
fe
05
01
ea
e8
0c
06
f6
03
01
12
f8
ea
f7
07
1c
0e
03
fd
f1
06
15
0e
11
0a
11
0d
e6
14
16
f9
01
0b
08
08
0d
02
01
fe
16
f6
00
11
0a
1f
09
12
01
0b
fa
01
0a
ff
f5
f9
15
0e
fb
e9
f3
09
01
f9
fa
ff
de
07
e6
fb
01
0d
0f
12
11
1c
fe
ee
fa
ec
fd
15
1b
07
f6
0c
02
fa
10
f0
ef
fb
10
f9
fe
18
ec
11
13
0f
0e
16
16
fb
15
fd
0e
12
02
02
fa
02
fe
ee
0a
f1
0b
13
fe
06
fd
15
f7
f6
00
0e
00
09
fc
13
0c
1d
16
04
e9
07
14
ff
f3
fe
07
12
0a
fb
eb
0d
02
09
0d
f5
00
08
00
0b
00
f2
ea
00
f4
01
00
f8
f6
f1
0b
06
f4
07
08
06
e9
f7
f9
f8
f0
05
0b
09
fc
14
0a
16
f8
f7
03
0a
df
0e
0d
03
f3
fa
07
03
f2
12
0a
f1
f3
10
eb
11
f4
08
03
ef
ea
f5
ff
14
f2
fa
06
14
f8
f9
06
12
05
10
03
0d
02
fc
00
06
03
0e
e4
0b
01
00
13
06
f1
05
0d
0f
f5
f7
16
f5
ed
e1
04
f7
13
08
07
ff
16
14
f9
06
0b
00
18
f2
06
fa
06
09
f5
e9
03
05
f5
06
f0
15
f3
fb
04
fc
19
07
f3
07
f3
f4
ee
0b
fd
02
00
08
f7
0e
ff
09
fd
f9
ff
25
ff
04
f4
06
10
f1
09
17
06
13
10
f4
f4
f0
f6
f6
f2
08
06
f8
02
0c
ec
06
fb
f3
ff
fb
11
f6
09
fb
fb
08
14
06
fb
0c
02
e9
08
05
0f
14
19
02
fd
13
02
00
07
09
d8
e1
f3
fa
f8
0b
05
02
15
04
fc
0f
09
ff
f3
07
fe
fb
fe
fa
17
03
fd
f5
00
1e
10
fe
04
fa
00
fc
1c
05
05
05
17
f1
12
17
fd
fb
f0
fc
16
13
ed
10
ec
f8
ed
0a
f9
0f
f5
02
0d
03
03
12
07
05
13
f6
04
f6
00
04
f8
03
07
00
f8
11
fc
f8
f5
07
06
f2
16
11
1a
07
01
0d
0d
fd
08
06
0a
04
fd
04
08
fe
f5
eb
f2
fc
f9
f5
22
04
12
f2
0e
f7
03
05
0e
01
1d
fe
1e
f1
0b
14
ff
09
0c
05
ee
fe
12
f2
0b
e0
fd
0f
fd
04
fe
e7
1c
ea
03
10
eb
0a
14
f4
ff
f0
ff
fe
00
28
e8
e9
12
08
06
f9
05
fb
06
0d
f6
f9
ed
e5
ff
f5
0b
1b
11
e7
06
fd
07
e9
f8
f3
14
f9
f1
02
03
fd
f8
02
f2
0d
04
f3
f6
e7
fa
ed
f3
fc
f1
00
0f
05
05
11
f5
0e
17
0d
fd
f8
e4
f5
eb
f4
f3
0e
10
01
e4
01
11
fe
f3
e6
f6
ea
fc
fa
0a
fd
f1
f3
10
09
ee
fe
05
07
f8
fa
08
15
f5
03
fd
f4
fe
fc
ee
f4
05
04
f9
fc
e9
fc
05
0d
01
06
0d
f2
fb
fb
13
12
fd
09
f8
03
f7
12
09
fc
01
ea
f6
fc
02
fa
f8
02
0d
fe
f4
ff
07
0a
0c
05
f5
fe
15
f3
05
08
e8
f2
f1
fe
f6
f6
03
f5
f4
02
0d
f6
03
fc
00
fe
0a
0e
0e
ff
f9
0a
19
fd
ff
19
f3
fc
ec
06
fc
0f
05
f5
ef
ff
ed
fd
0c
f6
0c
f7
07
0a
0e
13
14
fd
1d
01
1e
f4
0b
00
07
f3
ed
04
e6
07
0f
fe
02
fb
f8
07
02
07
1a
f0
13
06
18
fa
fb
07
07
f6
03
ef
01
02
fa
f4
ff
f9
06
fa
0e
01
0a
01
03
0f
e3
ff
fa
05
fb
f9
02
0c
08
0f
ef
14
18
06
11
05
03
1d
0c
10
fd
06
f7
fb
f6
f9
0c
fa
0b
f1
05
f9
f9
f6
eb
e9
ee
f2
02
e7
09
fc
e7
05
0e
f7
f1
03
f9
16
ee
14
fc
f1
fa
19
d7
03
f8
08
03
fe
02
fd
0c
f2
d1
10
fd
eb
ef
ff
e2
e8
e3
e4
f3
fd
f9
05
09
fa
fb
02
0b
e1
0a
ef
07
f9
f2
e6
03
f0
18
dc
ee
e5
12
dc
eb
02
fa
e5
e1
f7
03
ff
08
fe
02
11
fd
f0
f3
f7
f2
e6
fc
ec
f8
ef
04
1a
0b
fd
ea
e0
e9
e1
eb
fd
f1
f4
fe
01
13
0e
1c
ef
00
08
0f
f2
f9
f3
ff
fc
f2
fa
f4
05
fc
f2
fd
ef
e5
ef
ef
e4
e5
ef
fc
f4
08
f0
fc
19
f0
09
fe
df
ea
f9
e9
f2
e3
ef
f3
fc
ec
fe
f5
e5
06
f1
fe
0a
ef
f6
fe
fb
e6
f6
12
09
1a
0c
ee
fc
ec
02
e4
ea
f1
e4
ef
f1
ef
08
d7
00
08
e9
06
f8
0f
0b
fd
ec
10
fd
05
f1
db
03
0e
03
ea
e3
ee
e4
f5
00
04
17
09
f5
04
f5
fe
0c
f5
ff
ee
06
07
11
0a
f8
f5
e7
04
0d
fc
e3
0b
f0
17
00
f7
00
0c
10
0d
fa
f6
e9
ea
fb
ef
f3
03
f8
ff
10
fb
10
0e
07
f1
06
05
0d
08
01
ff
10
02
1a
10
0f
fc
02
01
f5
f1
fb
0d
09
f7
13
09
f6
0d
fd
17
fb
fc
05
17
10
06
0e
14
05
17
0b
1c
0d
09
15
f0
15
03
f4
0b
02
eb
0a
15
f6
08
fa
fb
0a
f9
01
01
16
2f
17
14
0d
08
0b
0a
2c
12
fe
10
0a
0e
13
ff
fb
f0
1a
03
fa
f9
ec
fd
f2
ff
12
01
0b
04
04
fc
f6
fe
0d
16
0a
12
03
06
0e
01
05
f5
0f
18
1b
00
03
f1
1b
04
00
fd
0e
15
f0
20
fd
1d
f9
17
0a
09
10
0b
f5
17
17
05
f5
16
06
0a
03
fc
14
ff
0e
ff
f6
04
1b
05
0d
f6
05
03
23
13
03
03
18
0c
1b
12
fe
13
01
00
ff
03
10
17
07
18
fa
01
fb
ed
fd
1b
03
e4
fe
0b
22
09
1f
fa
17
f2
10
01
f3
23
fe
04
fb
f4
f1
02
0d
0b
f2
f2
03
0f
04
24
fe
ed
f0
f2
08
02
fd
00
e9
12
f3
15
f5
04
0b
0e
0f
02
11
0a
05
f2
03
f6
eb
fa
f0
13
f0
fb
e1
ec
e0
e8
eb
f4
ed
f1
00
fb
f0
fb
ed
ec
00
ed
f8
0c
fb
07
0e
09
ff
ff
e3
01
f1
e8
ec
ef
e4
00
e4
df
e7
f6
f6
01
e6
04
02
e9
f3
1e
0e
04
08
fb
03
eb
03
ec
f8
07
09
f3
03
ef
fc
0b
eb
fa
e6
e3
f3
f5
f4
e6
f9
f6
f4
f3
13
f1
02
fb
0f
f6
fe
06
fc
02
0b
07
14
01
ed
04
19
01
09
fa
f9
dc
fe
0a
03
02
06
00
f6
00
fd
f9
f5
f7
1b
fb
f8
13
16
0b
05
f8
f8
fa
02
f6
13
fe
09
f7
f7
18
04
f5
f2
fe
16
fc
f9
07
08
ea
01
10
fb
0c
1a
fa
0f
ff
0a
fb
04
17
0a
f3
fb
03
ff
03
0b
f0
f9
0e
01
0e
ef
f6
00
fa
fe
08
f9
15
ef
0c
fb
00
11
05
ec
18
eb
12
f5
07
08
f0
0e
ed
15
0f
e7
f7
11
0c
fa
fe
0a
17
04
03
05
06
fc
f4
03
0f
0c
f6
15
09
eb
f1
01
fc
f3
0b
08
fb
0e
04
01
f0
fe
fc
f0
e9
f2
09
0a
fa
e8
22
f2
d1
e8
ef
e7
0a
04
f0
f9
ee
00
0b
04
05
f9
fc
f3
0d
00
05
fd
fe
10
0e
f3
eb
05
f8
f8
e3
e8
e5
f4
1b
fd
e9
f4
e8
ea
03
fb
fe
0d
02
02
e6
f4
0f
0f
0a
0d
0a
0b
05
f0
f6
f9
ff
07
f9
0d
08
0a
f0
e4
f6
f4
f8
03
07
16
ff
04
16
0e
f2
14
08
00
ed
ee
e2
ee
f9
f6
03
fe
eb
16
05
11
fa
e7
07
18
fe
12
f7
20
01
04
fb
fb
05
01
10
ec
e6
f5
e8
f4
ef
02
05
f9
ff
11
f2
f8
f0
e8
00
02
f9
10
01
17
fb
e7
05
f9
f8
ff
02
ee
0d
ff
01
02
f7
f1
0a
ee
17
07
0d
ea
f4
e8
ee
14
03
f2
f0
02
1c
0e
11
fe
05
fa
fc
de
11
05
01
de
f2
0e
ff
f6
1c
10
0d
0c
f7
fc
e9
fb
fb
0f
16
0d
21
00
fc
04
10
08
01
fa
f7
09
05
01
ee
02
e2
09
01
1a
0d
03
e9
04
0d
00
24
0d
1b
22
09
f7
f6
fa
ff
08
06
e4
fb
fd
fe
07
f3
03
ed
10
13
0e
fa
fb
e7
e9
fc
fe
19
07
fe
f8
00
04
f6
10
06
ff
ea
ef
03
fb
04
16
04
03
05
09
0e
01
f0
dc
e6
ec
ee
e6
f4
fa
ef
03
14
f2
03
ec
f3
ef
07
f6
0e
08
00
0a
0b
e8
1c
fe
f3
ed
08
03
e1
ce
f0
f7
de
ea
fc
fe
0b
03
02
f6
f2
04
0c
fd
ee
f9
e9
0f
00
05
fb
16
f4
1c
ea
03
05
ee
fd
ed
ec
e5
ec
07
00
fd
f5
f7
fa
0a
08
12
f6
ea
e1
ff
10
01
f5
01
fb
f7
fe
f5
f9
ec
f1
f4
fe
e8
08
ff
04
17
0b
0b
10
f4
0b
f5
e9
e2
e7
db
d1
e6
03
f2
03
02
fc
f7
01
fb
02
e7
f9
e8
e8
14
04
0a
fb
02
f7
f0
fd
09
02
08
fb
e8
f0
d7
ef
0c
f1
12
fa
fc
06
16
e6
ed
f9
e5
09
fb
07
0c
f9
ef
f9
f6
0e
07
09
02
0a
ff
eb
e7
ce
e5
06
07
2b
fc
ff
02
ef
e2
00
0f
e8
06
e6
06
08
e3
15
ee
fc
03
03
0a
0a
07
08
fc
fc
f9
12
fe
09
15
fc
f7
02
fa
f7
10
08
09
07
f0
00
18
18
11
09
e4
0b
fc
09
0f
18
02
f8
09
02
10
04
ff
01
04
f4
f1
03
03
f3
1e
05
0f
0f
ff
fe
02
f5
f4
01
00
12
f8
09
08
01
08
f9
0b
09
ff
ef
14
f5
f2
01
f2
f0
fc
ee
ff
0d
06
fe
01
0b
f2
fe
f3
f8
ef
11
fb
14
fb
04
f8
05
1f
0e
17
ec
11
fb
f1
ef
fa
fc
16
21
13
12
04
fb
f2
01
f1
ea
08
fe
f9
f3
0f
fa
fa
f5
fe
f4
01
e9
ee
0c
f6
ff
08
fb
0f
03
fb
00
fb
fc
fe
f9
f9
f9
0d
fa
22
fc
f5
fe
04
e4
e2
e8
e9
05
f7
01
00
06
d9
11
01
e6
0b
1a
1a
09
ff
f9
07
ef
f1
f4
fa
f3
e9
ee
f3
e3
02
ee
0e
ee
f6
0a
08
03
09
0a
06
0d
0c
09
f7
f8
f9
f6
10
f4
f2
0b
f0
f0
f0
fb
f1
fe
05
14
08
22
16
02
01
04
10
fc
f0
ec
04
f5
f6
f1
f4
fb
fa
04
f2
15
08
04
0e
00
04
f2
14
0a
01
03
f0
f2
e6
0a
0f
0d
0f
eb
f8
f2
0d
09
00
00
16
f3
0c
01
00
f4
fe
04
fa
f8
10
f0
ef
f9
f5
00
e1
09
02
f8
ff
07
f5
0b
ff
06
ff
01
01
f8
03
ee
14
09
e5
e4
01
f9
f1
00
0f
00
ef
fb
e4
00
ea
f6
00
00
ed
f7
14
fa
02
f1
0f
fd
05
fc
f2
02
0c
f0
06
eb
08
fd
f1
fa
02
ec
e8
fc
10
06
12
f5
15
fe
08
0b
02
f9
f0
0a
0c
21
24
0f
f2
0c
08
fc
12
ff
01
fa
ff
00
fb
f7
f7
10
16
f8
f9
07
f8
f9
0a
03
e5
ff
06
f5
1e
03
04
0e
f9
01
01
03
f6
f7
f2
0f
11
f9
f8
f7
fc
f9
fd
e8
04
fc
e4
0c
f0
fb
05
f7
0f
02
f8
04
f8
02
05
f7
08
00
02
02
f4
fe
f8
02
ff
11
01
f2
10
01
fe
f1
f8
f4
fd
10
fe
05
11
01
18
e9
0e
f5
07
f2
ee
04
02
f8
0c
08
05
fe
0a
00
fb
fb
f9
1d
02
05
0c
0c
05
18
03
05
04
08
0c
fc
15
fe
07
f8
11
e7
04
0a
f2
fe
04
f2
03
f6
f7
08
f5
f3
0b
f3
f8
0f
ec
ff
0a
f9
eb
f5
fe
07
f4
fd
16
02
09
ff
02
0d
f4
0d
0e
e8
0b
08
03
fc
fa
0a
01
13
0b
ed
03
09
fa
f8
f8
e8
0c
03
e1
fd
f4
fc
0a
00
05
01
02
fa
f3
05
28
f1
03
14
fa
fa
f6
0f
f8
13
02
fa
fb
f9
e7
e9
02
f2
f9
14
ff
fb
01
13
fb
de
ff
02
0d
e3
14
e3
f6
16
02
fc
fd
06
14
06
07
f3
ef
ff
ee
ea
eb
ec
eb
ed
f5
00
12
ec
fb
11
ff
e3
fa
05
e5
ed
d2
d9
d7
e4
fe
03
f4
fc
09
ee
fd
dc
ee
13
0d
f5
fc
ea
f0
1f
0f
f6
e6
c7
d8
e1
fa
de
f2
eb
eb
db
db
fb
f9
fd
f1
ed
e7
f7
0a
08
0a
0a
f5
fc
12
ff
01
fa
dd
db
c2
da
d2
de
e1
ea
e3
f2
f3
e9
eb
05
ff
f8
e5
f1
02
fd
f3
0f
f1
ef
00
e3
fa
12
e2
d8
dc
f2
17
f9
f7
fb
fc
f2
00
f3
ee
fc
fc
e8
fd
fd
f7
02
0b
01
f8
08
ff
f6
01
ef
f1
e6
ff
04
00
03
0f
10
f2
02
f7
f1
e8
eb
fc
e3
fc
eb
00
0c
f3
10
06
02
03
f7
fb
d7
0b
f4
03
ed
ff
03
f7
f7
03
fc
fb
f9
ff
fb
07
fa
e9
05
14
17
eb
0c
fb
0c
fe
ea
f1
f9
06
1d
fe
11
07
ff
1b
fe
fb
eb
0d
f3
e3
04
12
0a
29
f6
13
03
09
04
fa
fe
ea
06
f6
06
03
16
fb
08
fc
06
0c
1e
12
12
fb
ef
16
0d
fb
0f
0e
f7
ff
01
f4
18
e0
ff
18
f8
1e
15
13
16
2b
13
17
27
11
14
f2
03
0e
11
01
0b
08
0a
14
04
06
0c
01
0b
08
00
04
ef
24
0f
18
0b
0e
21
19
10
05
f5
0c
04
0c
11
07
13
02
06
0f
02
0a
07
fe
f7
11
07
00
ff
e9
12
f9
f1
1d
0e
04
fa
09
ff
0e
f8
ed
03
12
0f
10
ff
19
08
1c
f7
f9
f3
06
f4
fd
f9
04
1b
0c
e3
e8
08
f2
20
01
25
fc
08
f8
05
03
18
01
13
0d
14
fa
e7
00
f3
02
08
f5
07
f6
f5
f3
f1
e9
f9
ec
04
00
ed
0b
08
fe
01
14
ff
15
f5
05
fb
f7
0e
fc
ff
15
f2
00
f9
f7
e5
ef
fd
f2
ed
f1
f4
00
fa
f6
10
1b
0f
13
fe
fa
01
06
0e
02
e5
0d
13
dd
fc
0c
04
10
f9
e1
f5
10
00
ef
fc
f3
fb
13
ef
e9
0c
0e
f6
f4
06
19
00
07
f1
00
07
fc
13
ff
ee
11
f0
f4
0d
08
e9
07
06
ee
fb
05
0e
05
f6
e6
26
fb
00
fb
f6
f3
e9
05
06
0b
0e
f1
f7
fb
14
01
fe
f2
fa
0d
02
13
fd
f3
f4
04
f8
f9
fe
0e
03
08
09
12
07
03
e8
f0
ea
fc
06
fd
de
00
f9
03
f5
09
04
fb
ec
02
ff
06
09
f7
f1
10
0c
f5
09
fd
fc
ec
f4
e5
f5
03
ff
1e
f0
f6
f3
f8
0b
0b
0a
05
f3
f9
14
0c
15
01
13
01
f1
10
e3
10
fe
fc
fd
f2
07
fa
fd
09
10
0d
02
f0
ee
fc
f6
fd
fc
0a
02
f6
08
2d
16
1e
03
fe
19
02
0a
e8
0a
f2
05
16
db
09
f8
18
0c
15
1b
f4
f1
fa
0d
0c
10
0d
e3
f3
03
ff
08
0b
0e
0c
f3
f9
d8
19
11
07
11
1f
f1
05
ed
00
f9
13
fe
ff
ff
ff
fa
fd
fb
06
19
13
08
03
0d
f9
fa
f3
f4
f2
16
03
ff
ed
05
00
04
07
06
1d
12
08
e6
0a
fe
08
14
24
0f
f3
f6
ec
d3
f4
f6
11
11
08
ee
05
fd
f8
ff
f8
0a
fd
0a
23
1e
13
f8
0f
0c
10
01
11
ff
10
ed
ea
f9
f5
06
16
08
f9
01
06
ed
f4
0c
ef
fe
10
25
09
07
fb
e4
10
f1
1f
15
10
f7
03
ff
01
03
fe
f5
04
fd
fc
13
0d
ff
f6
02
fe
07
08
0e
29
1a
19
f2
13
11
11
fc
05
0e
f4
04
07
0d
ff
04
01
0d
06
f6
f3
01
f6
16
1b
06
13
f4
18
10
f9
23
11
f6
03
05
ec
ec
f9
f7
18
16
08
ff
f6
f7
03
06
06
0b
19
16
06
1f
03
0d
0f
1c
f7
22
01
04
e4
0d
fb
0e
12
0b
12
11
10
fe
fa
fe
18
fa
00
f0
0f
16
03
0b
06
11
09
fe
d2
04
04
1c
eb
15
15
12
0a
13
ee
f8
fc
f0
fb
f8
ee
fa
ff
02
24
f3
ee
fb
f2
fb
fd
e1
e7
03
21
f8
05
03
0c
0a
ec
fe
f9
0c
fb
f3
fe
fb
f8
03
04
fd
f4
db
ec
f9
e8
e6
e7
fd
cc
f9
0a
01
f0
f0
f0
ee
00
1d
0a
ff
e5
f2
1a
04
0d
fb
02
f5
ef
f1
ff
f4
00
e9
01
0c
e3
00
f9
e2
f3
f8
ed
e6
06
00
16
f3
0a
fd
0c
fb
21
db
f1
e5
f8
ee
fa
db
eb
0d
09
0a
f5
ef
f6
d2
f2
ed
ed
f3
02
eb
0a
eb
f2
01
0e
0b
04
eb
0c
ea
e8
fc
dd
08
f8
0c
13
0c
f1
ec
fd
da
f2
eb
f9
04
f5
f0
f1
ec
e7
ee
f4
fb
e9
11
10
f7
eb
f3
eb
07
ff
0a
13
10
f9
f9
fc
fb
d2
f2
f6
fd
f9
f6
01
00
00
0d
01
09
ef
0a
fa
f3
f0
f1
fe
01
09
17
0e
02
05
01
0a
1e
1b
18
fd
2d
14
18
1f
00
01
01
ff
22
17
fd
ff
0a
08
fd
ff
04
19
09
0a
ff
fd
1f
1a
f9
04
08
05
0b
0d
f8
fa
11
03
04
02
ff
02
f8
f6
07
e4
f1
02
fa
02
11
fc
04
09
10
0e
0b
0e
fb
fb
14
12
f4
0b
15
f3
09
f9
11
fb
ef
1c
fe
f8
fa
01
08
15
04
11
ed
00
0d
12
fc
06
10
f3
f8
f6
ee
fb
0f
f1
e5
fa
ff
10
f7
01
fa
13
03
0d
1b
04
01
18
17
07
00
04
ff
07
ff
13
fd
00
ff
0b
12
f0
11
fe
fe
f8
fc
02
f9
05
07
04
13
16
07
1a
e3
16
0a
0a
1f
01
18
05
0e
01
f0
04
00
e0
f3
fb
fc
f0
13
07
05
fb
10
0b
0f
19
13
0b
0e
03
01
0a
06
14
13
00
0f
10
18
03
04
f6
01
07
fb
f7
05
ec
01
0c
08
fb
1b
f8
0f
12
17
0b
1c
20
06
15
21
0c
07
f6
04
0d
07
00
0d
fb
0e
ea
f3
09
05
ef
10
ee
20
fa
0e
0e
08
06
06
09
20
0c
f8
fd
10
0c
fd
db
0b
0a
09
f8
f3
f8
05
06
0d
0e
0e
e8
16
f6
e4
13
fa
ff
05
11
f1
00
07
0e
04
e4
1a
0d
00
f4
ff
fa
03
14
15
0b
1c
f8
f5
1e
0a
11
06
06
fa
03
08
02
fe
07
02
fb
07
13
f0
07
fe
f5
07
f6
00
14
0b
05
13
f1
ed
f3
fa
10
fc
ff
08
00
e7
fb
f2
02
01
f5
fe
fd
f6
ec
f6
f9
11
e6
03
08
f3
e8
13
00
ec
0e
f8
0a
02
f9
0c
08
fd
f7
fb
0e
fd
f7
01
08
02
f4
fd
ff
fe
fe
ff
09
0a
fe
ff
ec
12
0a
f3
19
f7
08
01
fe
1d
09
fe
f5
07
04
02
12
f2
f0
fd
03
0d
fb
00
12
04
f1
ef
0f
06
ff
fe
10
00
0d
0c
09
02
f2
f9
fc
13
f6
01
f9
db
fc
eb
10
08
05
f5
fd
05
f8
03
09
1b
1f
04
06
10
0b
00
11
0f
ee
fd
09
07
f1
04
05
07
f9
fb
fc
f4
00
f6
05
01
1b
e5
1e
29
22
1c
fb
07
ff
f9
08
10
02
fc
05
f5
02
fc
12
ff
f3
f1
e8
0e
fb
01
06
0f
14
ec
22
15
00
15
06
17
f5
15
0c
ef
f9
0a
fe
f9
0e
02
0d
fc
0d
e7
fb
07
fd
12
fc
06
01
12
0f
00
09
04
0e
f6
e8
de
cb
da
03
0c
0b
1e
04
07
08
11
f8
01
fd
fd
14
09
1d
f8
ef
14
1c
f9
ec
dd
af
b4
bc
ce
e7
04
fa
f8
10
0c
ff
0d
11
18
14
f2
f3
fd
f4
10
0e
fc
02
32
04
f3
f7
dc
d4
ca
fb
f2
09
01
05
fd
f1
05
14
0b
07
05
fb
04
f6
e5
f7
fb
0b
02
1c
fc
fd
e8
d9
de
db
18
0a
0b
16
01
05
e4
03
fc
0c
0a
0a
e7
ee
ef
fb
14
19
08
0a
ec
07
00
f0
12
05
06
f1
0f
0c
05
f1
fb
14
ea
f7
eb
10
e0
00
fc
ed
ed
ec
0f
f1
01
ff
10
fd
01
01
0b
e4
f5
f5
fb
f4
09
fd
03
f6
ef
02
16
05
0b
f7
17
10
fb
04
f6
14
fe
07
e6
07
13
03
fb
f2
f9
03
0f
03
fe
f3
fe
e6
07
07
f2
ff
08
17
04
fd
09
fa
f1
08
0a
f3
0e
13
07
0d
e6
09
02
f0
f8
de
04
02
03
ec
07
11
18
0a
1e
2a
1b
1a
ff
ff
ff
f4
ec
f1
fc
fb
09
f6
fb
fa
10
ff
03
fb
dd
09
ff
07
0e
13
14
13
12
fb
09
04
06
01
f6
f0
f8
01
fd
f1
0d
1e
08
19
ea
0b
e1
f1
e3
ed
fb
f2
17
07
0a
fb
fd
09
0a
05
f7
fe
08
f4
f1
fe
f9
e7
04
00
07
05
f9
ff
01
03
fe
fb
00
0b
f1
fb
13
03
ff
e4
01
f1
eb
dc
f9
e0
15
ed
01
f6
0f
f0
06
f5
03
04
03
ff
f0
04
0e
f9
07
e6
ef
01
f7
fa
f9
07
e1
e5
f6
fe
1c
f9
fb
f6
fa
fa
f6
ff
eb
07
f4
0f
f5
01
fc
f8
00
08
01
15
fc
f1
e7
fd
e5
f6
ff
07
0c
ff
fe
01
13
01
03
fe
fd
08
f8
f7
02
fd
fd
05
16
f5
f4
f9
00
e6
fa
f3
d7
fc
0b
05
f8
0f
fe
1d
08
07
ec
07
13
f0
ff
f5
09
e5
fc
fc
04
fd
fd
0b
ef
ff
e1
cc
fc
02
e9
04
f7
04
f1
f2
07
08
20
0b
02
fc
f6
fa
0c
f9
ff
07
10
fc
09
f2
f2
ee
01
01
fc
08
0c
0d
fe
0b
05
0a
1d
0c
20
fe
20
08
01
09
11
08
05
08
00
19
f8
ef
07
12
fc
f7
03
f6
13
fe
15
01
10
ee
f3
06
14
0e
01
fe
f4
f4
0b
08
f7
f5
1a
0a
fe
fa
00
25
f9
09
05
f6
1e
00
fe
14
e1
f9
12
09
f7
03
ec
04
e8
fa
ff
0b
fd
1b
08
0e
fa
fe
fe
15
eb
03
04
09
0c
ea
fe
ed
0b
09
16
ff
fa
04
f6
04
fd
ee
fb
01
f8
06
fe
e3
01
ff
08
17
09
0b
f7
03
f5
fe
00
f9
f3
f6
f2
fb
0c
fb
f3
05
f8
f2
ec
06
e9
f9
e7
05
f1
fa
ed
e8
1f
f8
ec
19
0c
f8
fa
00
f9
f3
fc
ff
09
fa
01
06
14
d3
0a
14
03
f0
fd
ec
f7
10
00
0a
08
05
ff
11
fe
01
f2
08
00
f2
0b
0b
03
f7
13
ff
fc
fe
07
ef
27
f6
0b
02
f7
f9
fd
00
1b
0c
10
08
fc
01
ee
fb
13
0a
0f
02
f1
18
fc
f3
fc
04
24
0b
14
fb
10
fd
11
12
fd
f9
04
f5
08
f7
ff
ff
09
f6
f6
09
0e
f9
06
05
09
18
16
1e
1d
05
10
0f
09
15
17
10
07
fb
09
ee
f0
d8
05
14
fe
02
10
fb
fd
ee
f5
10
02
08
f9
05
fe
16
14
20
17
fe
fb
f7
02
ee
02
ec
f0
06
07
f1
ea
ea
15
f3
04
0e
14
17
16
11
0e
09
05
f3
03
03
f8
0c
08
04
f8
f3
fd
fa
00
06
e7
05
19
f9
0c
fa
f3
ef
13
0e
26
0f
f4
0e
14
26
0d
f6
f3
fb
0b
00
08
1a
01
f8
f2
16
f4
14
13
fc
09
0f
05
0d
08
18
06
12
0a
1d
f9
01
10
ff
f2
fb
0c
ff
e1
0c
f7
0b
0b
0d
f6
e3
0a
0e
0a
06
0c
f3
06
fe
12
08
06
fe
fc
09
f5
ec
f6
06
02
18
f9
1a
f2
0f
d5
fa
ee
fa
02
fe
01
03
fe
13
05
1d
0d
0d
11
0f
13
f0
f3
e2
d4
08
0a
0d
0e
23
00
05
e8
ec
fd
05
f3
f4
05
ee
fa
07
ed
fe
19
01
dd
09
fb
dc
04
e3
ec
fc
f3
12
09
1d
21
ff
09
f0
1a
02
f1
f4
fa
fd
0d
15
0b
14
08
09
f8
df
ea
0c
00
e5
f5
0c
fe
fe
26
21
17
0f
0e
0a
1c
04
05
ff
f6
f1
fb
09
fb
e0
14
05
05
ef
02
04
f6
02
fb
ed
ee
12
0b
ff
22
fd
30
02
e3
16
14
05
0d
ff
07
10
13
07
0c
06
06
04
07
06
f1
fe
f8
f0
fa
fb
04
16
14
fb
fb
0b
f6
fc
ff
eb
f0
e6
ee
fe
08
fd
00
0a
12
16
03
0d
1b
ee
07
01
08
0d
12
0c
0b
05
1d
10
0a
f9
f7
ec
01
fa
fa
f0
fc
0d
03
17
16
08
02
13
03
ef
f1
01
ff
0c
0e
0b
05
06
13
03
0c
0a
ff
07
06
00
00
eb
fd
f9
04
0f
0d
08
0a
07
fc
e2
00
08
13
10
fc
08
0d
0e
15
06
f2
ef
1a
f4
ed
20
05
f7
0b
14
f6
09
f4
f3
f1
f6
f2
ec
f8
02
03
1c
ef
17
0f
fe
0a
fb
f2
ff
eb
0a
0f
0a
18
0f
0b
0f
06
ee
11
f4
fc
05
ff
02
04
0e
0d
ff
0c
0e
16
24
0d
f0
e9
07
12
03
f4
05
08
08
f2
f9
0a
e4
01
fc
f6
08
0c
f6
f1
f4
07
f6
ef
05
0b
f7
f8
e8
05
f4
00
fb
f8
f7
1c
10
0c
ff
fa
06
fe
00
0c
06
20
f4
07
f5
00
f0
ee
f3
21
08
05
08
05
08
f3
f9
fe
01
fb
f2
02
20
f1
fe
f3
06
06
02
18
20
01
02
fb
f3
11
02
03
fe
f6
03
09
ef
14
f3
09
e7
0e
13
ff
13
07
04
05
16
11
0f
05
f6
12
0a
00
fa
09
12
05
17
f8
ec
f6
f9
0f
02
08
f8
f9
fc
0b
fa
0f
02
f6
20
07
fc
f2
12
00
f2
f6
f3
f4
03
16
0b
f5
14
f5
f9
fc
0d
0b
20
11
f5
01
0b
e8
fb
01
fa
fc
0e
07
05
08
fd
ed
0f
fd
01
ff
f3
f7
0b
03
0e
f9
0e
f8
e9
ff
fb
ee
fc
11
e5
f2
f5
ff
10
09
f8
00
03
02
05
f5
0d
fa
04
0b
0b
09
03
f7
05
10
fa
f7
01
fc
09
f8
e1
fd
07
03
01
ec
f8
fa
fb
ef
09
07
09
07
02
06
09
14
0c
09
f0
14
05
04
fa
f8
fc
00
f9
10
fb
e4
18
f0
f3
f5
ef
0e
05
05
f6
0c
fa
0e
14
f9
02
ff
07
03
fb
f3
00
f8
ed
07
13
f4
09
0e
09
ee
08
fd
09
06
06
10
02
0f
00
0a
04
03
f5
f6
09
f7
fe
04
f8
f5
f7
fa
08
06
f1
f2
fe
fe
09
04
00
fb
11
15
20
08
10
0f
fa
0a
0d
03
01
ff
fd
06
0d
f6
fe
0a
e0
f7
ef
f6
08
e6
f8
fd
04
01
06
03
12
17
1a
14
14
08
f5
f9
05
18
1b
ff
f3
d9
de
de
df
fe
f6
fb
01
08
f5
d3
10
0b
0b
fc
05
1f
14
19
fb
fe
fc
03
0b
f9
fd
fb
f2
fa
eb
08
f3
f9
0a
ff
f0
ef
07
f5
f5
07
08
04
03
fc
00
1d
19
11
fa
fd
f4
f9
f2
fa
e7
13
e6
0f
0e
03
fc
f2
ef
04
0c
17
ff
04
05
06
02
10
28
2c
0a
0d
eb
11
0c
e8
f7
0a
f3
06
ea
fd
fb
02
04
0c
ff
f6
ed
f3
07
0a
07
fb
fa
16
2f
39
39
1d
fa
09
06
fc
fe
08
e2
ee
e6
fa
05
01
04
1f
fa
e8
e6
e5
ed
f1
e2
e5
ff
1f
4e
34
fc
0d
f9
07
fb
10
f8
fe
0c
0c
1c
1b
1e
32
12
01
0d
e9
d7
e9
dd
ec
e9
da
07
3f
20
1d
1c
20
17
f0
f5
fb
10
02
07
1c
35
25
21
12
18
01
09
f6
e7
e9
fa
fc
00
04
27
1f
09
02
0f
03
0f
f7
f8
ea
11
10
03
0f
0d
04
0c
00
f4
03
f9
0f
fc
ea
e5
fe
fd
18
2b
22
22
10
19
f9
05
fb
07
00
f8
06
03
10
15
07
01
f8
ff
13
17
f1
ec
e7
00
f9
0c
20
0b
0a
07
f7
ff
e9
fa
09
ff
0a
f9
f0
fd
00
ff
17
08
10
16
1d
ff
00
fd
09
ec
0c
0a
fd
0c
f4
04
f2
f9
06
f4
0a
07
ea
08
e7
0d
ef
fc
fb
0e
fd
11
18
0f
db
00
e4
05
07
0d
fd
02
10
f9
f7
ee
f6
f3
e7
fb
f2
f9
09
ec
15
13
f2
fe
ec
03
f4
f2
ec
e7
1e
05
fa
1c
fd
00
fe
e5
01
e9
dc
02
fd
0c
f0
fd
05
09
fd
1a
f6
04
eb
00
08
fe
02
ff
20
09
fd
fb
f3
f2
f8
e8
04
eb
fe
f6
05
f3
0f
0e
f9
ee
1d
05
0a
17
05
ed
06
08
f9
f8
08
f6
15
f0
fd
fc
f0
fc
e1
15
ed
f5
05
f8
ff
05
07
04
fc
fd
f2
f7
0e
fc
0e
17
13
fc
fb
fa
f1
e9
fa
e3
f0
04
f1
1c
03
f7
0c
e8
f5
02
fc
0b
03
01
f1
0a
f9
0c
11
fe
0e
03
04
fa
08
02
09
f0
fc
03
07
ee
07
02
f2
fb
0e
fc
03
f7
f5
08
fd
07
0c
f7
0b
0a
09
11
03
03
f7
06
fe
03
0e
03
04
04
fa
fe
f7
fe
00
0c
fa
f5
19
ee
09
fc
00
fe
ff
29
08
f5
16
fe
fc
f9
f4
f6
10
01
f5
00
03
eb
04
0c
f4
02
02
fc
04
07
f0
e6
f1
fd
06
06
14
18
11
fe
14
e0
14
06
08
f2
0b
0b
05
eb
02
07
15
11
fa
f0
e4
f9
f3
ff
0a
f8
08
fa
f1
f9
1b
01
fc
f0
f7
10
09
f7
f9
fa
24
ed
f7
fd
ff
ff
fe
09
fa
f5
fe
01
13
0f
ff
fe
f7
0c
09
23
0b
08
0a
0b
1f
f4
0d
00
04
09
fd
0d
06
f5
00
fd
03
ee
f9
0d
06
f0
10
0f
0e
15
13
f4
12
01
07
04
02
ec
1c
04
06
f0
03
02
ed
0d
07
f6
fa
f6
08
06
18
ff
0a
f5
04
04
fd
0e
f6
f5
f8
00
0d
e3
ff
04
0b
fe
ff
f3
10
f1
16
02
01
0a
f3
22
06
f9
15
00
fc
f3
11
0e
02
f8
18
09
fd
f1
f3
09
02
f2
05
ff
08
03
f6
01
08
e4
03
06
17
f2
da
f1
fc
fe
ff
ea
05
f4
00
12
02
00
0d
0b
f2
07
ee
fd
f5
e7
04
02
f4
05
ee
08
05
1a
07
f3
08
02
f5
ed
f2
fe
07
1d
01
f0
f3
f6
ec
1c
fd
02
f9
ee
05
09
f0
00
18
05
0a
11
0c
ff
08
e7
07
ff
08
e8
11
f2
00
fb
fe
f2
fd
f6
19
0c
0e
f2
04
d9
06
ee
1b
f2
e9
14
f7
0c
10
01
fc
17
00
08
e1
06
df
ff
0e
ef
08
f1
fb
1f
06
00
fe
f9
18
06
f7
06
f2
f0
fb
07
01
01
ea
02
18
0b
00
f6
e9
0c
ed
00
ec
fb
f1
fd
f2
e3
13
f4
fe
ec
fc
f2
fa
fc
ec
0c
ea
fc
f7
19
ff
03
1c
13
0f
fb
f6
15
12
de
0c
fa
f3
10
e7
fa
01
0a
06
fc
0c
f2
fd
eb
0e
f6
f8
08
fd
ff
03
04
09
00
12
f3
dc
04
fa
f2
02
f8
fe
01
0a
e7
04
eb
07
e7
03
f4
02
f1
07
ed
f1
04
f6
10
07
11
fe
f4
f2
ea
ff
02
fb
08
e9
f1
11
fc
ff
0f
06
f9
0b
f2
11
f8
f3
0b
ff
01
00
03
ff
03
09
ff
0e
09
0a
0e
0b
f1
09
03
fa
e8
fc
00
ed
ee
fc
f8
ff
f5
05
fb
df
fa
07
ec
09
10
01
ff
f4
fa
fd
ee
f2
fa
04
14
fc
0b
f7
f9
03
fe
ef
05
0d
f0
fd
ed
f9
ed
0b
f7
0e
0d
03
02
0d
08
0d
04
ff
ef
00
f8
eb
f0
f1
05
04
0a
04
07
ea
e9
f4
dc
f3
f8
fc
fc
0d
09
08
01
09
08
ed
f6
08
f6
03
00
f6
f5
06
03
ff
fe
00
fc
fa
11
fb
fd
f2
ec
fd
f9
01
ef
f8
01
f8
09
fe
fd
08
00
19
0f
f6
11
04
fd
fb
01
f9
fa
f1
03
fa
06
e2
f6
fd
fb
17
00
04
f7
fe
e9
07
04
0a
07
e9
e9
fb
0a
ff
01
03
f9
15
03
f3
0c
fd
fa
e9
fd
04
09
0c
fa
02
03
1f
00
03
f2
f9
f4
00
f7
07
f8
fd
e8
15
17
ff
f6
0a
04
fc
fc
e7
0a
11
15
09
08
ff
06
0d
1f
0c
fc
fb
05
05
02
10
08
02
1a
07
06
e6
02
e3
05
08
fe
07
0a
f9
1c
ff
19
e8
fd
0e
04
fc
f2
f9
15
11
0b
fc
ef
ff
11
f6
fb
02
ed
fd
fa
ef
0a
fe
0b
0c
f2
0c
0c
fd
ef
0d
07
f5
e6
17
f3
12
11
02
ff
f1
03
03
fc
ff
10
f3
14
fa
fe
f3
11
ee
04
02
0d
fd
17
03
fe
0b
e2
ff
05
13
ff
1d
12
fa
10
f4
05
02
e6
16
f6
f5
0c
00
fc
d8
13
fc
fd
05
fb
f1
f8
f7
26
06
ef
0a
04
04
f4
ee
f2
0a
0e
ea
04
08
fe
fc
f5
0d
fa
fb
e5
ef
f3
07
01
fe
fc
fd
ef
05
0a
f9
f9
0c
ec
11
04
ff
e9
ec
fb
13
1a
f2
f8
f7
00
f9
fa
11
00
02
f3
18
05
00
08
fe
ef
05
ed
0a
fc
11
10
fe
ff
00
ed
0a
ef
f7
f5
e2
f8
05
f5
00
fe
ee
06
f7
03
00
0b
f7
f7
0c
fe
f6
f5
01
02
eb
f5
09
e8
17
11
e5
ea
f8
0d
07
0d
f6
0e
f0
fa
fa
01
02
18
fa
0a
01
fc
ff
15
00
04
fd
f3
04
12
06
08
0e
fe
08
13
f3
0e
0c
04
f6
f6
1a
08
1d
07
f2
fd
f3
ed
fb
0c
fd
05
08
05
fe
19
09
0f
06
0a
ff
0c
0f
f4
f9
fa
ec
15
f5
fd
0e
ff
04
ef
fe
f5
06
0d
06
0d
fe
fb
fb
0e
02
0e
e8
f9
0b
10
08
fe
1a
0e
02
ec
0b
0a
e9
f0
04
f7
10
e7
ff
e2
fe
0f
f6
14
ee
09
01
13
00
ef
fc
03
ee
fd
1b
fb
f0
fc
ff
08
ef
00
ed
01
09
dc
0f
01
fc
f3
ff
fc
04
ed
0b
f3
0b
02
00
f5
08
01
f9
11
00
ee
f7
0e
0f
09
0a
fe
fe
f3
f9
10
06
0a
f2
f2
e9
0e
f8
0b
fe
13
04
fa
f9
fb
19
f2
06
fc
07
08
0b
f8
ee
14
08
fe
05
02
f4
ef
05
fb
08
ef
0a
03
f6
01
0b
06
f8
07
fd
18
ec
f6
06
0d
f2
06
f3
fb
f5
fa
ee
ed
e2
db
e7
e0
04
e4
07
f5
f6
18
06
00
f9
13
11
fd
05
0f
ea
f3
f8
1a
16
fc
05
f1
f9
f2
13
ec
0a
0c
f4
0b
ee
fd
f5
f9
0a
12
00
0e
f0
15
16
10
ee
fe
fc
f6
0a
04
02
e9
0d
0b
0b
00
0a
0a
0e
16
f3
00
f7
02
ef
fa
ff
fa
ef
11
05
01
07
08
21
fa
ff
00
06
ef
ed
fa
fc
1b
0b
18
00
0a
12
06
f3
07
f4
f8
0a
0b
f5
10
1d
2a
28
0f
fc
e6
fa
03
ec
f8
f2
07
ed
f3
06
0c
08
12
0c
03
ee
f7
fa
02
18
0f
19
0e
13
20
fc
13
0e
08
01
18
05
ed
e2
f7
07
f0
05
08
11
33
10
e0
e2
f1
01
fc
e2
f5
04
08
05
0b
00
17
fc
fd
08
f8
ec
0a
fc
f2
f8
0e
f6
fd
1b
36
0a
cb
db
ff
d1
cd
dc
d3
d7
fc
ff
fa
13
0d
f9
ff
e5
06
04
f1
ec
02
fd
00
0b
13
0e
12
f2
d3
de
f1
f7
ec
e8
dd
e4
cd
eb
ff
fa
fd
03
02
05
00
f6
fa
06
02
03
2c
07
17
19
04
eb
d7
d4
dd
e3
ed
ea
ed
f8
e9
fa
f6
fe
0b
03
f0
07
ec
fa
04
09
16
11
f7
05
21
08
0f
05
e9
e1
e0
e7
ec
01
ec
0e
0c
fd
fa
05
02
15
0f
07
ed
01
fa
14
1e
00
0c
13
fb
eb
0a
e7
d7
f1
e2
ee
e5
fb
1e
f6
0c
0b
09
01
ec
03
00
ef
f8
ff
ed
f8
19
24
fe
09
0f
f7
ee
e2
eb
d9
ea
e5
08
fc
08
02
1c
26
08
f6
fe
03
1a
02
f5
05
06
00
f3
fb
e5
fa
f4
08
f6
ee
f6
e3
e6
f6
e9
12
0d
0d
fe
2b
10
f2
05
09
03
eb
04
f4
0f
06
ed
f8
03
07
07
e5
fe
e4
d5
e0
e5
09
1b
1f
04
17
07
12
f6
15
02
fc
00
f6
fc
ff
0e
07
ec
0f
ec
ec
f1
fe
f0
db
e5
db
12
15
1e
15
03
fd
07
07
00
18
f2
19
fe
03
f5
0a
f9
03
f5
01
fb
f6
e9
e7
f8
f7
09
00
0f
1c
fc
05
01
02
f4
00
1d
0d
e4
04
22
10
0a
ec
04
06
f5
f4
f7
fc
fe
02
06
1c
ff
10
fe
10
0b
f6
05
08
04
0b
00
00
00
05
08
1b
08
18
fe
fd
de
04
01
03
02
1d
05
11
12
0a
f4
fc
0e
1a
12
0b
13
03
09
14
04
fc
ee
00
f8
f5
f1
03
0f
f1
f5
08
f5
0e
14
00
14
15
0a
fa
ff
07
f5
0d
09
13
05
fe
fe
fd
00
16
01
11
07
00
f1
11
0b
f4
fa
0f
ec
14
0f
f4
11
ff
f6
fa
f1
f4
1c
0f
fc
ff
f6
08
fe
06
f2
03
14
11
03
ee
10
06
0c
05
0c
0d
06
04
15
0b
00
fa
f9
f6
09
fc
01
06
04
0b
ff
02
0a
f8
ff
06
08
0a
08
fc
14
08
0c
09
09
0a
fd
1a
1a
01
11
f0
fb
f3
05
03
fd
11
11
0f
0b
08
09
ef
fa
11
ff
15
04
0b
0b
09
0b
0e
f5
fd
fb
04
08
f6
fe
ee
fc
f4
fb
f1
fb
f8
f1
0c
f5
10
eb
f8
f3
e9
1b
0b
f8
fc
ee
00
0b
0a
01
f8
e2
fd
09
da
fa
03
ef
f0
0e
0e
00
05
f5
09
f1
09
17
0f
0c
03
fc
f8
0b
01
f9
0a
04
02
09
f2
03
01
03
00
ff
04
00
fa
07
f5
01
02
f4
fd
f4
0f
ff
0a
16
0e
ee
f8
04
fa
fa
fd
09
08
f5
0f
14
f8
ff
fc
fb
f0
02
f3
f6
fb
0b
f0
1a
dc
fe
ff
ff
fc
06
ea
f3
ff
f7
04
06
f6
f5
0e
06
0b
ff
f9
f4
f3
fb
0f
09
11
f7
da
0b
f5
fd
0d
e7
ed
ff
07
fa
f9
0e
fa
f4
21
f4
03
1d
03
fb
ff
ee
fd
fa
fc
06
ff
df
fb
04
16
fe
f2
02
f9
10
f0
0c
07
f1
12
16
0b
05
0a
f6
02
fc
15
ff
12
f9
04
09
f7
e4
06
08
10
08
0e
fb
09
eb
07
05
f6
04
07
00
f0
ed
00
01
f2
04
09
e6
02
06
14
fd
01
01
0e
11
fe
07
ff
df
f5
0b
1b
f8
f6
fe
12
f4
e6
f4
0a
f7
14
ef
f3
fb
e1
f3
10
fa
f7
00
12
f0
f1
0b
11
0c
f2
03
03
ee
07
01
ec
0b
07
fe
02
05
02
fb
eb
00
10
f5
02
09
07
f5
00
14
e7
06
0f
f3
e7
06
ff
f9
06
f9
fe
0c
09
04
e6
00
f5
fb
fa
fc
13
ed
06
f3
f6
f6
00
02
f8
e9
00
f4
02
e7
f2
04
09
07
fa
f3
10
14
f7
00
09
df
f7
07
0d
f0
fc
0a
0e
01
f9
ed
f9
05
fd
ed
f0
de
ef
fe
17
0e
09
00
fd
f0
e1
f4
f4
05
f9
03
f7
e6
fc
14
e4
14
fd
ec
e9
01
e2
fc
00
e3
e6
e4
02
0c
07
fa
fd
03
13
0f
fb
ed
df
03
0e
17
0d
04
fb
e0
01
fc
fa
f5
11
fa
eb
fd
d6
ec
05
fb
08
07
02
11
06
eb
0a
f6
f9
06
08
fc
f9
f6
fe
f3
fa
f4
fb
fe
fa
12
02
f5
ec
ea
f0
08
19
06
f4
16
f8
0c
02
f5
06
e9
13
13
f5
fe
0e
04
1d
07
fa
0c
f4
07
04
0c
f0
f8
03
01
0a
0e
06
fa
ea
ee
0c
fc
fb
f6
f4
04
ee
02
fb
10
f9
01
0e
04
09
f3
0b
fc
ef
f6
06
0e
16
f9
05
0f
f6
f5
09
09
fa
e5
12
f3
08
f8
f4
0c
05
ef
01
ee
0b
f7
ee
f0
f1
ed
15
17
0c
10
02
f2
e8
fb
fa
0a
06
ef
eb
f5
f5
00
f2
0c
fb
fd
05
e5
fa
f9
ec
fd
1e
19
18
08
f2
15
f3
e7
ef
06
fb
fd
fb
0e
f4
09
fc
f5
13
f4
0e
fc
02
e8
ec
fa
e7
0c
1d
19
0d
09
fb
03
e6
fd
e5
00
04
07
02
f7
ff
01
f6
12
03
f2
12
02
f6
eb
fe
03
f4
12
19
01
0e
f5
fc
f7
f6
17
fb
f4
02
06
fd
01
f2
f2
f3
f1
08
01
fe
07
f9
f0
ec
f9
f8
08
00
10
0f
f9
0a
08
06
02
fb
fb
1b
04
ec
fd
03
01
05
09
01
03
fd
fa
ff
f4
f2
0d
fe
fe
f7
11
07
fd
16
07
0c
08
14
10
0a
ee
07
fc
00
f3
07
ef
fd
f3
fb
05
f3
fe
07
05
ee
11
fa
11
0a
f9
e7
fb
05
04
1a
19
f7
f5
f1
f6
fd
ff
fd
ec
f5
fb
07
03
03
01
f9
06
ef
f0
f7
f7
0d
f4
fe
f5
0a
0f
fd
01
0f
e3
ec
09
17
fd
fe
f8
f7
ec
ff
f6
08
ff
04
09
f5
16
e0
f9
0a
14
ff
06
fe
f8
07
f3
07
00
18
02
09
ff
0b
04
02
07
18
f4
03
0b
02
01
0a
f5
fe
fb
f6
0a
f3
16
dd
f5
02
f8
00
10
0f
ff
0c
ef
f8
00
e3
f8
e3
14
f2
f8
07
f4
01
fd
fa
f2
f5
03
13
fb
eb
04
e2
fb
fd
0c
f1
ee
05
f6
f6
13
05
e6
08
12
09
02
f5
ff
fd
ef
f4
fe
f7
00
ee
fa
fc
f3
fe
e8
15
0f
f4
0e
01
03
0f
f2
10
09
f3
08
f7
ff
17
fe
ee
06
13
0c
ff
04
fe
fc
0a
f9
05
0b
08
ef
ff
fa
ef
ef
04
fc
11
12
02
11
ff
eb
08
ff
01
17
fe
f1
07
10
f5
1f
02
01
16
ee
fc
02
10
09
f3
06
03
f3
f9
01
f1
f8
14
fe
09
f7
05
04
02
0f
02
f2
0c
1d
f9
07
04
0a
0d
f8
fe
12
00
fb
06
01
fd
ed
06
fe
0c
fd
07
13
06
07
0a
fe
10
0e
0e
08
13
1b
f3
17
0c
14
05
01
10
fd
0c
0b
ff
0f
ed
07
f6
07
f1
09
04
fc
fe
07
f2
19
09
f3
f8
01
01
0f
0c
09
f6
fd
fe
f1
10
fc
ef
1b
02
04
10
f6
f5
e9
f6
02
dd
ef
07
e9
ee
f9
08
04
00
0c
fe
fa
10
fb
f7
f7
0a
fc
f3
f2
e0
f4
ef
f7
ee
f9
ef
ef
07
0a
fb
fe
fb
ee
fb
ee
f2
f8
fa
f0
fe
f0
f7
ed
f5
f8
f9
f5
de
0b
f1
f1
05
f6
0f
f0
f3
f6
fa
ed
05
f8
f2
01
fa
09
fc
ff
f9
0c
f9
21
0c
ed
e8
e2
f3
f0
ff
f4
f5
fc
f6
f5
0f
f0
f5
ff
e2
fe
e7
f6
e4
f9
ff
f2
0d
fd
0a
f9
01
f1
e7
f2
f5
f5
f8
f8
02
01
f6
f4
e7
ed
f5
ef
05
fb
f0
ea
d7
de
f5
f1
ff
06
e7
1a
fe
f8
01
15
11
f5
f9
04
f7
14
f4
e4
e4
e5
ee
ef
f1
f6
f6
f6
cd
f0
fb
ee
02
02
f8
fc
fb
fd
f5
f9
ff
08
09
ff
f9
f9
f6
f2
02
ff
0e
02
fa
16
19
f2
e0
f6
f5
fb
0d
f5
06
f9
14
01
01
25
0e
0c
06
09
12
04
f8
14
14
14
05
07
0b
11
01
fb
ec
eb
fc
ea
03
14
15
14
f9
22
1b
11
06
10
15
31
16
12
24
09
1b
fe
10
08
03
02
19
f8
f9
eb
03
e2
09
05
f6
12
02
06
17
17
11
15
02
fa
18
1f
0e
f8
13
08
11
0b
05
02
14
f8
fb
f7
20
f6
f7
f3
f6
fa
03
04
07
0c
0a
16
0b
1d
16
f3
00
0d
1e
11
0d
f5
14
f4
04
11
07
f5
0c
f3
17
06
f1
fe
00
10
0a
05
05
ff
fd
0c
21
f8
04
13
1f
09
18
09
fa
12
eb
01
ee
e7
09
0b
fc
fd
04
ef
e7
f4
04
27
15
0f
06
08
fe
ed
0b
0b
06
10
f9
00
0f
01
fc
ec
e3
f1
04
e8
02
ec
ff
fc
e4
fd
09
09
e1
28
12
07
22
05
18
02
1d
f4
00
e8
0c
07
03
f8
05
f7
fa
04
f5
f6
19
fb
fc
02
04
e1
00
e8
fc
0e
0d
14
01
01
01
0c
18
0c
fe
fa
01
f3
f7
0d
fd
ef
05
f0
02
fe
08
f7
07
fa
09
e0
ec
eb
06
f6
fd
f6
fd
03
fc
0f
f5
ef
f1
ea
05
00
fa
0a
07
fc
f8
03
f3
00
f2
ea
d4
ef
f6
e3
f3
eb
fe
ff
f3
f0
de
e9
f8
03
fd
01
11
16
04
1c
0c
f8
16
06
fb
02
03
01
f7
f5
f0
ec
e1
fb
ee
eb
f0
ec
f4
da
f0
e5
f7
0f
0b
f1
0a
08
01
f2
0d
fc
f2
ed
0e
f2
f8
e4
ec
e2
f2
dd
dc
ee
e2
e4
e4
1c
fe
09
f9
0b
12
1c
01
f8
03
01
0e
06
f1
0c
02
0a
04
13
fa
0b
f4
03
fe
e7
fc
00
02
fc
ed
18
20
fd
f7
f7
f7
0d
0e
fb
ea
ff
db
05
05
fe
00
23
fb
05
04
e7
f6
09
e4
04
07
ec
04
ff
13
eb
fd
f4
0e
09
14
f8
f1
ef
f3
04
e7
ed
00
f4
0b
0b
f9
fb
f9
0b
08
00
0a
fb
fa
05
e6
02
1b
f4
fd
f6
f6
f1
05
ff
f9
ff
06
ff
e5
ee
ff
dc
fe
fd
02
04
09
07
15
09
04
19
f4
06
ef
0e
fb
f9
ec
ef
f7
fe
18
06
ea
f7
ee
0a
03
02
eb
f6
16
00
0b
01
01
02
04
01
da
f0
dd
08
08
f7
fb
fa
fe
f4
0e
ff
ee
12
fd
f9
0e
f6
00
05
f9
f8
01
0d
e7
fd
03
00
f6
f2
f6
05
21
04
02
0c
ff
ec
fd
f9
12
e4
fa
eb
04
ed
e3
eb
f3
fc
18
00
07
f8
06
fc
f8
f5
0f
02
fe
0d
f6
03
f5
ff
fd
03
f7
fc
f3
f7
f2
fd
ff
f9
f5
e9
f8
0b
01
eb
f7
e7
f9
fa
f4
00
05
f8
fc
f7
eb
f5
06
16
e6
11
0e
18
04
fe
05
0a
06
ea
13
0c
ed
e3
f8
e2
e9
e5
e1
06
f2
05
e5
08
0d
0b
02
07
ed
e8
16
08
dd
f5
f0
fe
01
df
e0
03
fe
f1
ec
ee
fc
e3
fb
e2
e4
08
11
0c
f7
f4
03
0f
05
f8
f6
e5
f3
f7
fa
ff
fa
ef
ee
ee
da
13
f4
e8
f6
f9
0e
fe
04
02
12
0a
06
02
f5
f5
1a
ea
02
0b
0b
e8
10
fd
fc
00
e6
f7
f7
03
ee
03
ea
f5
f9
f8
16
f8
00
07
0e
f3
fd
f6
04
03
e5
0e
09
05
fa
0c
fd
01
fd
0e
01
02
06
03
07
0c
f5
09
fa
09
fd
13
f1
0a
fd
fd
20
02
fd
f0
fd
02
09
03
03
19
13
fd
f8
11
01
0e
04
0f
ee
21
0a
01
0e
05
fd
0d
ed
f9
07
ee
1b
04
08
fb
fb
fc
f3
21
1a
0a
16
f8
f8
f8
f7
fd
12
13
08
29
ff
0d
04
f7
0e
ee
f2
07
f1
e6
17
fa
1a
02
01
04
0c
14
04
f6
00
fe
f7
f3
09
09
12
08
f1
f3
06
00
e8
08
e9
0d
f7
06
e2
0a
e4
08
0e
05
fc
fa
f4
e4
fb
eb
00
f4
00
05
09
08
0c
17
f2
f6
0a
f4
f3
f2
00
18
0e
f2
16
0b
04
06
fc
fa
f5
f0
e4
f2
fd
f7
0b
0c
0a
01
f1
f7
02
0c
06
00
15
fd
08
f2
ed
09
10
fc
18
f7
fb
fd
fd
f5
fe
f2
f3
fe
0b
fa
06
ff
f1
08
ea
f6
fa
eb
07
ef
fa
0c
1b
03
f4
fe
f9
ff
06
fb
08
ee
f8
00
0c
0f
fe
f6
f1
02
02
f3
0c
08
09
0b
fb
05
e7
00
ff
f9
08
fd
f8
ee
08
fb
f7
14
f1
e9
04
fe
0e
0e
12
21
fd
05
e5
f3
f7
f7
02
19
fb
ff
05
00
02
03
fa
fe
0d
08
14
ed
19
ff
f3
fa
f6
02
ff
ee
0a
e5
fc
e2
0d
1c
f6
0c
13
09
0d
08
05
07
ed
03
f9
0a
0d
fe
fb
ff
f3
11
08
19
12
fe
07
10
14
06
f9
f4
02
0b
17
0b
00
fc
0d
ef
09
01
fb
03
ea
0a
0a
f0
0a
07
04
0f
25
ee
ee
f5
0f
03
fc
e8
ee
f7
f7
fe
1d
07
15
07
f5
ea
f3
e1
e9
fd
fa
09
fc
15
f8
02
0c
f9
05
f1
fe
09
f9
0d
f1
f8
0f
de
f6
f8
f3
fa
f4
fc
de
e8
d7
ed
e3
fb
0a
f4
04
0c
fa
0b
0c
17
f9
f9
f5
02
fb
f6
e0
e8
e6
f4
fe
f2
fb
e9
f4
d5
dd
e0
eb
ee
06
fd
e8
03
06
f7
1a
02
01
03
0f
e6
07
f7
02
e8
ec
e7
dc
e3
db
f1
ee
f5
f2
f4
e7
fb
f7
ee
0b
05
0a
fe
fb
f2
f1
05
0f
f9
fd
01
08
03
fc
f8
0b
e4
ea
f0
ef
f5
09
fe
fc
04
00
08
ef
f5
0a
08
0f
e7
02
03
0f
f1
f8
ff
ee
f1
0e
f6
fc
e9
0d
ed
1d
f5
03
fc
03
ea
fa
0b
0f
f9
f8
04
0a
f4
f2
fe
ee
02
01
0e
f9
05
ea
f5
05
07
00
0d
0f
ff
14
f7
0e
01
fb
13
09
f0
fb
e5
0e
f2
f4
12
f9
0c
f0
0a
08
f1
ff
fe
11
e7
0c
0f
05
19
f4
f9
f0
fa
f3
fd
ed
01
f7
16
04
0d
e9
fd
05
fd
06
f4
07
f2
fa
09
fd
fe
f2
f1
0c
26
d9
05
03
f2
0e
fa
0e
00
f3
14
ff
06
06
03
fe
05
0d
08
06
fa
12
0a
f8
fa
f8
fd
01
1e
ff
ff
f7
fa
fe
f9
f7
0b
0b
f3
ed
fd
ee
07
0d
f6
09
04
f8
ec
eb
01
13
f6
0a
fe
f7
ff
02
ff
00
ee
fd
ed
0a
f3
fa
15
04
0d
fd
0c
fd
fa
ff
0a
f5
08
0a
0f
04
f4
12
09
11
0b
ed
08
df
0d
f4
03
f0
05
f7
03
0d
0a
f1
fc
0b
17
06
01
00
fe
fe
1b
13
fb
0b
f7
08
08
10
0b
0a
f9
f2
04
fc
f6
f2
fc
06
fa
05
fd
01
0c
ee
12
f9
07
0f
02
1a
06
10
2e
1f
36
41
0e
09
23
1b
04
06
00
ff
21
0d
fc
02
ea
f1
f0
08
05
0a
19
1a
f4
f8
16
fa
02
fb
fd
ee
ee
04
0b
f4
0c
1a
fb
0a
fe
0a
f5
fc
fc
f7
03
02
04
00
f7
fe
fa
f7
e9
ef
ea
e6
e5
fe
f8
06
f4
01
0b
09
0f
fd
09
04
0f
f7
0f
f5
17
12
0d
1d
f1
f5
04
f5
0e
04
f3
fb
e8
e6
ef
03
f4
ff
0b
00
09
0c
0e
0d
09
23
fe
0c
f5
f4
ec
07
09
fd
f8
e7
ef
e3
e4
e3
ff
09
fa
01
06
01
f4
07
19
11
f4
ef
fe
ee
05
f0
fb
0e
e5
f7
f6
f2
01
f6
f6
fa
eb
d8
e8
05
fd
f2
e8
14
08
ef
06
f4
00
09
04
f3
05
ee
fa
f1
fa
01
f3
ff
f3
eb
13
ee
e5
e7
f2
f2
e0
06
ed
00
06
04
00
fc
10
fc
0e
0b
06
e7
f1
e6
0d
f8
f4
06
1b
06
0e
f8
06
00
0d
c9
f5
f3
03
e3
e6
fa
21
13
f7
09
e8
ee
0c
fe
f8
06
05
f3
14
10
12
08
2c
0f
fc
fe
08
03
f8
f8
fe
f7
1a
0b
0c
06
0c
fb
ee
06
07
07
ee
08
07
21
07
fb
04
11
07
06
07
f8
fb
15
ff
03
e3
f1
0b
0c
1f
12
fc
11
f8
f3
f6
02
0d
1c
f7
fd
12
fc
1b
18
14
06
ee
05
05
ee
f9
00
e7
ed
00
fd
f6
dd
0b
eb
01
0b
20
01
f6
fc
0e
f7
ff
08
01
fa
06
0d
fa
0c
f8
18
f7
01
02
04
0a
fe
12
f6
04
fe
02
01
ef
fd
ff
09
09
01
01
04
ff
09
0a
05
0b
f6
f5
ff
ef
fd
f6
f2
e3
f4
1c
09
16
02
0f
e3
13
07
10
1a
12
f6
05
14
fc
02
18
fb
07
f9
f6
fc
f8
1e
15
eb
10
09
f0
ee
00
04
02
10
f4
f9
ed
ff
12
04
20
18
fb
ff
07
fe
03
09
fb
ed
01
e0
10
09
08
19
0a
03
fb
fb
0b
10
0f
e9
ff
f7
14
15
14
f7
17
14
00
15
06
18
11
04
1e
0d
ff
0c
f0
00
00
0b
ec
ed
db
00
04
0a
fd
1e
17
21
14
1b
0a
1a
fc
13
00
f5
0b
0a
08
f5
1b
03
13
01
06
eb
ed
fb
06
ed
1c
05
f9
19
f2
17
12
fa
1b
0f
15
10
0e
14
23
03
1d
18
fd
07
f7
fb
01
0e
11
06
07
0c
1d
02
ef
03
04
08
01
14
0d
15
10
01
15
14
16
14
0f
2c
26
18
20
f5
fc
0f
03
fe
fe
f6
f6
fc
f3
ea
f3
df
05
f1
07
01
07
16
15
1c
19
0a
07
03
fa
f8
ff
01
e3
fe
f8
ec
ff
11
09
0b
03
ed
f1
fb
ed
ff
ed
fb
f3
f7
ec
f7
e8
df
eb
eb
f7
07
f7
19
f1
df
f9
fb
fc
07
cb
02
fc
0f
f3
10
f9
00
ea
f3
0a
e3
e4
d4
fe
f9
dc
ff
e3
fd
f2
0a
0e
f9
09
ee
0a
0d
ee
01
12
15
f7
f8
08
f5
0f
04
1a
09
f3
16
ee
09
09
0d
00
ff
ff
0b
fd
e7
f7
f9
14
02
12
00
fa
00
fb
09
01
f9
f2
e7
eb
15
0e
eb
11
16
0d
e8
12
05
14
00
f7
f8
f4
0a
05
0c
eb
fc
03
e4
07
fd
21
fe
01
f1
00
f9
f4
01
f5
0d
fa
01
e9
fd
f6
19
fe
f1
fc
07
17
f1
eb
0a
f6
f6
ef
03
f8
f3
fb
ff
0e
02
01
dd
04
02
f6
f0
f0
f7
f9
fc
f8
fb
ee
f1
f8
fd
0a
fa
0c
0f
fd
11
04
0a
0d
ff
15
12
0e
f3
f3
f4
fd
0b
fd
ef
fc
15
14
f6
0d
ff
04
f7
f2
ec
00
fe
0a
fe
1b
07
0d
f3
f1
0b
09
ff
f3
fe
f7
f9
ef
f8
03
02
09
f2
06
0a
f2
08
fb
fc
f9
f1
05
fa
ee
fc
02
00
f2
0a
06
f3
06
f5
0f
03
fe
f5
f2
04
f4
f0
06
e1
ed
ff
01
fb
f6
f6
e1
f7
fd
fa
00
f8
f5
f7
ef
06
06
f7
fe
02
04
06
fd
fa
ef
e1
06
06
14
09
0c
f8
f2
fa
08
07
ef
fa
01
08
09
08
10
02
fd
e4
06
f9
ec
02
f2
e3
ff
ea
1f
f6
e8
fa
fa
03
fa
e3
e3
fd
ef
f0
fe
f6
f0
f7
ed
0b
f5
10
fc
fe
f9
fc
f6
fc
ed
db
f7
0a
0a
09
ff
14
fa
04
f7
f4
f7
0b
0b
01
00
08
ee
fd
15
0a
fd
05
f6
03
f9
ef
df
d3
07
fa
0a
14
0c
f4
02
f3
fc
05
f6
ee
fb
e9
f4
08
f1
e5
05
19
0b
11
10
00
fb
ec
f0
d3
00
0c
f9
f4
f4
00
f8
02
ef
f2
ff
f6
07
ee
01
f1
de
dc
e6
f8
fa
0a
05
0f
10
f7
f3
e7
f6
00
04
fd
fd
e9
f7
f7
fb
01
f2
08
ed
f5
ed
ea
e1
d6
e7
05
fc
ed
f1
0e
14
0f
16
ed
f4
09
f0
f2
ed
f4
e8
da
ee
01
fa
0b
f1
05
00
f9
e7
e9
dd
ec
00
e0
f8
fa
0e
1a
20
0c
1b
0d
0e
07
00
1a
fd
f9
2e
0a
10
0c
02
fe
05
e7
ea
ee
f6
f3
f3
fe
1c
06
09
1e
f3
f3
04
eb
f9
ec
08
f8
11
15
16
23
13
03
17
f5
0c
f1
f6
fc
fc
05
ff
fb
0d
0d
10
1b
fc
1c
fe
01
10
f5
fe
fe
f4
00
13
1a
05
21
19
1f
0b
fd
e2
02
06
0d
19
0b
11
19
03
07
0c
10
fb
02
f7
f3
ff
f5
ed
02
fe
0d
27
10
1d
1a
fb
fe
12
0b
13
fb
04
01
fc
11
18
fc
14
16
05
0c
18
01
f5
f9
03
01
03
01
07
17
17
1b
f6
e6
02
f8
03
e6
06
f4
fb
08
fa
e9
fd
0e
f0
ef
12
ea
01
f8
f7
09
fd
18
f8
1a
21
0a
00
fc
04
12
06
15
05
16
0a
08
24
f8
22
09
10
fc
f0
eb
ff
06
0c
14
f5
09
fd
0e
10
1f
00
df
f5
06
f8
01
fe
05
fc
03
0e
06
22
08
13
03
1a
1d
11
00
14
fa
0a
11
12
09
fc
10
14
01
ee
0e
0b
04
05
fe
fe
13
0a
16
04
f4
09
1b
08
ed
11
0a
0a
0e
f7
0e
08
08
fe
01
11
f7
e8
fa
e2
e9
15
07
1a
16
09
21
06
0c
fa
0e
fc
0f
f5
07
f8
f2
0b
f7
05
1b
00
0f
01
fb
fb
f5
05
f3
00
e0
f5
fd
fb
fa
0c
07
0e
f8
01
08
fa
0e
09
fc
e6
de
f4
13
ed
fb
f9
0b
e9
ee
f9
e3
f0
f6
e2
f4
02
12
0a
ff
fc
fe
eb
f1
f3
01
f6
0e
ef
ef
fb
d6
d9
e4
eb
fa
ed
0e
f3
ec
ed
eb
ea
1b
16
f2
01
03
f4
fe
f5
18
07
e5
09
ff
f8
f8
f8
08
01
01
f6
fe
fe
ef
ef
1d
04
04
fc
f5
fe
fe
fb
ea
f1
0b
fd
fd
02
07
f6
f4
00
05
f6
05
13
f6
f7
05
fe
03
ed
11
fb
ff
0f
ed
f8
07
13
f2
0e
03
05
01
0e
13
04
fa
f5
fe
f8
07
fb
ff
01
05
f2
f5
f2
e8
e7
ee
12
fd
18
0f
fb
e8
04
f7
ff
0a
f3
04
08
ec
14
03
fa
f3
21
fb
fd
08
10
fb
01
0a
17
f6
02
0b
ff
02
1f
02
00
fc
00
fb
f0
f7
07
04
04
fe
ee
da
e4
f0
fa
fd
ee
e3
00
f3
ed
30
f4
07
f4
08
f1
fa
04
ff
00
ff
e6
05
e5
07
fe
d9
0a
ed
f2
06
e5
f7
06
0d
f6
1f
ff
0f
06
fd
fa
fb
fe
fd
13
ed
14
f8
06
00
e8
fd
fe
f5
ef
fd
e0
ec
f8
e5
f3
f5
01
e6
f8
0d
f4
03
f0
0d
0e
f5
01
fe
f9
f6
00
14
0b
09
09
f6
f8
09
04
0a
11
e9
e2
e4
02
17
14
01
08
0e
f5
0c
f7
fb
eb
00
17
02
e1
ec
fd
12
04
18
01
0e
fc
dc
00
d9
d8
be
01
0a
0b
f9
0a
14
0e
0f
f1
eb
e5
fa
f5
f3
0c
03
fc
0d
13
16
13
19
07
ff
0b
ee
c9
e2
03
f7
1d
02
09
f1
11
18
0d
fd
f4
09
f3
f5
fa
fe
fc
0c
ff
00
0c
03
02
00
f8
d5
bf
e3
15
0f
07
11
15
fc
17
00
e9
07
ee
07
04
13
04
eb
eb
08
02
f6
fc
03
06
fd
1b
da
d3
07
09
f6
01
ed
02
00
08
fd
00
f9
0a
fe
f3
f4
06
f4
01
0b
01
fe
14
01
fd
1d
f2
c9
c6
0a
fa
14
f8
19
fe
0a
ea
f3
0f
09
11
00
0f
0c
07
13
fe
03
f0
03
02
0a
20
1b
e4
bf
e1
02
fb
0e
ef
04
f2
fa
ed
e7
eb
10
04
e2
fb
01
10
ec
07
e9
f5
00
1a
f8
0c
32
04
e3
f0
01
06
01
07
f5
04
14
fa
ef
f0
03
f3
05
f2
fb
12
ff
0f
05
00
08
e8
fe
09
fc
ff
e7
ff
fb
f9
0a
05
11
09
f8
11
f8
0f
09
09
ee
00
05
ed
08
07
09
0b
0e
0b
11
08
06
06
f5
f6
0a
e9
0d
ff
01
0b
13
06
e8
02
02
06
00
0a
0b
e9
fe
09
f9
fe
f6
fd
0d
fb
f9
05
f7
fc
fc
fb
0b
fa
f7
05
00
0d
f5
e7
f9
f8
04
03
04
0e
08
ec
e7
fd
0c
fe
f3
01
fd
02
f6
fa
fd
10
07
0b
fc
01
0b
fb
f1
02
16
03
04
05
fd
f4
f0
0a
ee
fe
fd
fd
14
01
f0
e7
03
08
0d
fe
f2
18
03
f0
ff
08
f5
f7
f9
03
00
00
f6
f7
03
e8
02
f6
13
07
0b
03
e6
f7
03
05
02
f4
ff
f2
fe
03
f0
02
fd
0d
f6
05
08
11
09
e0
ea
01
03
0b
06
03
f3
f2
e4
de
fe
fd
f2
f1
07
e0
f4
09
11
0d
0c
05
0f
ee
fe
fe
f7
15
f0
01
06
04
ee
ea
04
e9
dd
04
11
09
15
fc
e6
fd
f7
f9
ff
11
0d
fc
00
f6
1b
00
fa
01
f1
f2
fb
00
0a
0c
ee
fe
fd
eb
f6
e1
f3
11
01
fb
fe
23
12
f3
13
ff
f5
f4
01
ef
03
fa
00
11
fb
0c
0e
fb
e2
e8
ea
ed
15
f8
09
04
0c
fb
0b
12
0d
fa
f5
05
08
f4
06
0d
04
02
f8
14
fd
07
f9
fd
f0
f9
06
03
1d
04
fc
0e
1a
fc
ff
00
f5
f3
f1
06
f9
05
ff
0c
04
13
03
11
f6
05
03
ed
05
ee
ee
f8
ff
0d
ee
06
08
10
07
e5
f2
ee
fa
09
f9
03
fb
f4
07
f3
f9
f8
02
f6
0e
01
19
fc
fb
f9
04
f9
fd
ec
e8
f4
f5
d9
07
f8
0a
0e
0b
02
0a
09
fa
ef
16
03
18
ec
ec
f5
06
eb
ff
eb
ea
e6
f4
f5
ee
f4
07
f8
e0
10
03
02
ff
f3
26
0e
07
0a
f3
f6
ee
fb
0b
fe
0d
15
06
03
f6
f8
f3
fa
e9
fe
fb
06
03
ed
16
00
0a
05
04
4f
2e
b7
2c
ca
d3
ed
e9
c0
da
0a
cf
21
dc
ee
bb
de
df
ec
f8
f4
13
0e
16
e6
e3
18
12
28
00
0b
01
da
ef
03
bb
da
d2
1c
f0
14
d3
f9
49
11
27
53
fe
15
c9
cd
c0
fe
00
17
dd
e0
0e
fd
01
bf
02
b2
fd
b8
00
22
2a
25
cf
28
d0
00
c9
10
27
c1
4a
cd
ef
2c
ee
1e
e8
39
11
5f
ff
2c
dc
00
dc
4f
1c
e5
e4
ea
97
3d
97
21
f9
15
c2
f7
db
ec
e7
00
46
30
d0
f7
df
c1
e2
dd
e4
ad
e4
e8
00
f5
c5
b6
d8
b4
f3
cb
1b
e2
2a
29
29
35
e7
08
ea
cc
fc
0d
ec
04
ee
18
4f
97
2d
09
52
9a
ce
35
f9
d2
05
21
eb
cd
c5
c3
13
06
23
32
ea
38
20
02
d6
d2
5a
e5
55
cf
e7
5f
15
c8
05
bb
3b
ac
30
c9
d4
df
d6
da
ee
17
40
df
e6
b6
36
e1
ce
22
f9
ea
1e
e8
07
eb
18
ca
15
26
e4
13
12
bc
05
fc
f0
09
3b
2d
3f
dd
1f
a9
2f
04
df
e8
ca
f5
1e
14
09
e5
0e
f4
de
ce
cb
d1
dc
b0
21
a2
bb
ce
09
12
eb
b5
c3
21
fc
12
bc
02
f0
b8
ac
03
d7
27
02
f5
93
e7
d1
01
2f
dd
fa
04
e7
2d
e5
d9
e0
10
c7
af
3a
1b
c4
5c
e3
d2
d7
e2
f9
50
e1
e3
fd
14
d2
1f
25
d9
d9
04
93
